<unk>	0
<s>	0
</s>	0
in	-0
▁t	-1
er	-2
▁a	-3
he	-4
on	-5
▁the	-6
an	-7
or	-8
es	-9
en	-10
is	-11
ed	-12
al	-13
at	-14
ar	-15
▁o	-16
▁s	-17
▁w	-18
▁in	-19
▁of	-20
it	-21
▁f	-22
nd	-23
ic	-24
as	-25
▁S	-26
▁c	-27
▁p	-28
▁b	-29
re	-30
▁C	-31
ing	-32
▁and	-33
ion	-34
▁A	-35
ro	-36
▁1	-37
▁T	-38
le	-39
ou	-40
▁M	-41
il	-42
▁m	-43
▁d	-44
am	-45
▁R	-46
▁P	-47
ent	-48
▁B	-49
▁to	-50
▁h	-51
ol	-52
▁2	-53
▁(	-54
th	-55
om	-56
▁H	-57
▁I	-58
el	-59
▁19	-60
ers	-61
st	-62
ur	-63
▁l	-64
▁L	-65
ac	-66
ad	-67
▁D	-68
▁F	-69
iv	-70
▁was	-71
ist	-72
▁20	-73
ation	-74
▁E	-75
ay	-76
ir	-77
et	-78
▁N	-79
▁G	-80
▁The	-81
ec	-82
▁is	-83
▁W	-84
us	-85
ter	-86
em	-87
id	-88
▁n	-89
ig	-90
▁re	-91
ch	-92
▁for	-93
ot	-94
▁on	-95
ly	-96
▁J	-97
un	-98
▁as	-99
and	-100
ag	-101
▁g	-102
ct	-103
im	-104
ow	-105
▁O	-106
op	-107
▁e	-108
um	-109
▁th	-110
ian	-111
ut	-112
rom	-113
ul	-114
ith	-115
▁by	-116
▁st	-117
enc	-118
est	-119
▁al	-120
ef	-121
▁r	-122
▁K	-123
▁at	-124
ia	-125
all	-126
▁U	-127
oc	-128
os	-129
▁from	-130
▁with	-131
ra	-132
▁pl	-133
ri	-134
▁wh	-135
ov	-136
▁In	-137
ber	-138
▁St	-139
ies	-140
▁an	-141
ab	-142
▁v	-143
ity	-144
▁he	-145
ts	-146
▁201	-147
ce	-148
ish	-149
ain	-150
ip	-151
▁Ch	-152
▁com	-153
ate	-154
ub	-155
art	-156
erenc	-157
ess	-158
ill	-159
od	-160
mer	-161
▁V	-162
▁"	-163
ard	-164
ere	-165
if	-166
ew	-167
ud	-168
ks	-169
▁Ref	-170
erences	-171
up	-172
av	-173
▁References	-174
▁con	-175
ap	-176
ear	-177
▁200	-178
our	-179
▁play	-180
oun	-181
ep	-182
▁pro	-183
ated	-184
ak	-185
▁He	-186
▁be	-187
tern	-188
ary	-189
ge	-190
og	-191
▁Un	-192
ong	-193
ev	-194
igh	-195
ric	-196
▁it	-197
▁his	-198
▁18	-199
ich	-200
ug	-201
ord	-202
ast	-203
so	-204
ue	-205
ine	-206
ran	-207
ld	-208
ort	-209
ust	-210
▁It	-211
ball	-212
),	-213
ment	-214
ive	-215
und	-216
▁ch	-217
ther	-218
ell	-219
▁also	-220
ial	-221
▁that	-222
ous	-223
end	-224
ame	-225
uc	-226
orn	-227
eop	-228
▁de	-229
▁are	-230
ions	-231
19	-232
ican	-233
eople	-234
▁or	-235
▁sp	-236
00	-237
qu	-238
ount	-239
age	-240
ath	-241
▁comp	-242
▁199	-243
ational	-244
rit	-245
▁Y	-246
oot	-247
ant	-248
▁Ex	-249
land	-250
▁Al	-251
ilm	-252
ore	-253
ember	-254
▁Amer	-255
▁–	-256
ical	-257
ee	-258
▁ex	-259
man	-260
ost	-261
ack	-262
erv	-263
▁Th	-264
res	-265
▁le	-266
ass	-267
ire	-268
ect	-269
ph	-270
ootball	-271
hed	-272
▁y	-273
ry	-274
▁3	-275
irst	-276
amp	-277
▁k	-278
▁Ar	-279
ang	-280
ver	-281
▁se	-282
lect	-283
▁te	-284
own	-285
▁American	-286
▁were	-287
ivers	-288
ey	-289
▁lin	-290
▁which	-291
cl	-292
ure	-293
ork	-294
eg	-295
ond	-296
ens	-297
ory	-298
hip	-299
▁198	-300
ff	-301
ach	-302
ok	-303
pp	-304
ign	-305
▁has	-306
ternal	-307
▁players	-308
▁cl	-309
ool	-310
▁un	-311
▁links	-312
▁Mar	-313
▁External	-314
ide	-315
▁ar	-316
▁first	-317
ited	-318
ice	-319
▁ro	-320
▁New	-321
ng	-322
ations	-323
iz	-324
▁film	-325
ates	-326
ight	-327
20	-328
▁people	-329
are	-330
▁sh	-331
▁football	-332
ib	-333
▁As	-334
ors	-335
les	-336
ie	-337
▁197	-338
ound	-339
▁Com	-340
ubl	-341
▁-	-342
iss	-343
▁j	-344
outh	-345
aw	-346
ild	-347
ru	-348
wo	-349
ace	-350
per	-351
fter	-352
▁Sp	-353
ree	-354
ater	-355
ics	-356
chool	-357
ury	-358
io	-359
▁Univers	-360
ail	-361
▁(19	-362
eb	-363
inal	-364
▁bir	-365
ition	-366
ik	-367
ward	-368
▁who	-369
▁4	-370
ite	-371
▁res	-372
).	-373
ral	-374
cent	-375
ome	-376
▁part	-377
▁Le	-378
wn	-379
ton	-380
out	-381
▁birth	-382
▁des	-383
old	-384
▁196	-385
oll	-386
ern	-387
▁University	-388
▁had	-389
ason	-390
▁year	-391
▁its	-392
hen	-393
to	-394
ames	-395
eral	-396
ished	-397
ult	-398
ased	-399
clud	-400
ings	-401
▁cont	-402
▁ad	-403
ists	-404
▁Count	-405
ents	-406
istric	-407
▁Pro	-408
▁app	-409
ime	-410
oin	-411
act	-412
ied	-413
hn	-414
▁Ind	-415
▁bo	-416
▁one	-417
▁United	-418
▁her	-419
▁loc	-420
iving	-421
ade	-422
▁Sh	-423
se	-424
▁An	-425
ale	-426
▁includ	-427
ave	-428
te	-429
ted	-430
ah	-431
ision	-432
ark	-433
bum	-434
ob	-435
ile	-436
▁serv	-437
▁On	-438
orth	-439
▁Col	-440
▁two	-441
▁sc	-442
ugh	-443
▁Z	-444
▁us	-445
way	-446
▁5	-447
raph	-448
orld	-449
istrict	-450
▁not	-451
▁Eng	-452
rib	-453
any	-454
amil	-455
oy	-456
▁County	-457
▁rec	-458
ress	-459
▁195	-460
uring	-461
ague	-462
ren	-463
▁ab	-464
▁ac	-465
▁team	-466
▁births	-467
lish	-468
▁comm	-469
▁Sc	-470
port	-471
orm	-472
▁act	-473
ina	-474
▁Cl	-475
ence	-476
▁Con	-477
az	-478
mp	-479
▁194	-480
▁off	-481
▁per	-482
▁Pl	-483
▁album	-484
▁ag	-485
▁bec	-486
we	-487
▁She	-488
▁season	-489
als	-490
ase	-491
emb	-492
ograph	-493
▁their	-494
▁but	-495
olog	-496
ram	-497
▁6	-498
pt	-499
oci	-500
▁est	-501
ind	-502
ince	-503
▁Jo	-504
ex	-505
olit	-506
▁bu	-507
▁(1	-508
urn	-509
▁National	-510
gan	-511
iel	-512
▁she	-513
▁202	-514
ock	-515
inn	-516
born	-517
usic	-518
▁after	-519
anc	-520
rop	-521
▁elect	-522
▁Aust	-523
ouse	-524
ual	-525
gh	-526
▁Hist	-527
ans	-528
▁|	-529
ife	-530
opul	-531
pl	-532
ron	-533
enn	-534
▁been	-535
ood	-536
hes	-537
▁States	-538
omen	-539
▁See	-540
able	-541
duc	-542
▁kn	-543
ier	-544
irect	-545
▁work	-546
ann	-547
▁spec	-548
▁pr	-549
century	-550
▁und	-551
ampions	-552
areer	-553
ft	-554
rad	-555
ional	-556
▁co	-557
▁this	-558
eng	-559
▁193	-560
ix	-561
isc	-562
lev	-563
▁17	-564
▁World	-565
ative	-566
one	-567
▁estab	-568
erman	-569
ely	-570
▁sing	-571
fer	-572
▁gro	-573
resent	-574
aj	-575
▁South	-576
▁Can	-577
ance	-578
son	-579
▁Q	-580
ict	-581
▁publ	-582
▁have	-583
ket	-584
eries	-585
econd	-586
▁famil	-587
ae	-588
iam	-589
▁gen	-590
ered	-591
▁up	-592
arl	-593
▁all	-594
rans	-595
ley	-596
▁ev	-597
ourn	-598
ober	-599
▁found	-600
▁ed	-601
▁Is	-602
red	-603
▁med	-604
▁death	-605
▁7	-606
▁Comm	-607
ll	-608
ake	-609
air	-610
▁ass	-611
▁School	-612
ons	-613
▁Brit	-614
▁Fran	-615
ield	-616
▁rele	-617
▁over	-618
ash	-619
▁col	-620
1,	-621
du	-622
ery	-623
ese	-624
ities	-625
▁new	-626
inist	-627
▁League	-628
▁cent	-629
ampionship	-630
▁song	-631
eat	-632
orts	-633
ick	-634
▁known	-635
anu	-636
ollow	-637
▁Austral	-638
▁years	-639
▁writ	-640
▁Ge	-641
ternational	-642
▁Ph	-643
ins	-644
▁under	-645
▁played	-646
ept	-647
2,	-648
uch	-649
une	-650
▁films	-651
▁where	-652
▁Living	-653
▁stud	-654
▁art	-655
▁reg	-656
ction	-657
▁At	-658
▁into	-659
▁out	-660
ough	-661
▁John	-662
▁War	-663
▁other	-664
ai	-665
ean	-666
pr	-667
ident	-668
0.	-669
▁direct	-670
ould	-671
▁German	-672
▁pre	-673
▁8	-674
ank	-675
0,	-676
uss	-677
▁bet	-678
▁Br	-679
erson	-680
▁im	-681
▁sub	-682
▁record	-683
▁fl	-684
▁during	-685
ious	-686
let	-687
iver	-688
▁May	-689
lymp	-690
▁school	-691
▁Ac	-692
▁16	-693
ians	-694
by	-695
▁popul	-696
▁polit	-697
▁Olymp	-698
ween	-699
▁ret	-700
▁family	-701
rough	-702
4,	-703
3,	-704
▁men	-705
amed	-706
lege	-707
overn	-708
ography	-709
▁192	-710
form	-711
▁time	-712
ural	-713
5,	-714
▁vill	-715
ax	-716
▁att	-717
arly	-718
stit	-719
sh	-720
▁Canad	-721
▁form	-722
▁9	-723
ose	-724
▁Pr	-725
att	-726
ounc	-727
▁cons	-728
aces	-729
▁Bl	-730
round	-731
fess	-732
▁Or	-733
▁Ad	-734
▁British	-735
urch	-736
use	-737
▁Car	-738
▁For	-739
ten	-740
▁191	-741
200	-742
▁Ass	-743
icip	-744
▁Reg	-745
▁English	-746
▁three	-747
cess	-748
2.	-749
▁Nov	-750
▁follow	-751
ros	-752
pen	-753
erm	-754
▁&	-755
▁This	-756
▁Ju	-757
ures	-758
▁ind	-759
▁second	-760
ments	-761
au	-762
▁Gre	-763
▁tr	-764
▁between	-765
▁made	-766
▁again	-767
▁became	-768
▁North	-769
▁District	-770
ived	-771
▁career	-772
1.	-773
▁People	-774
▁name	-775
▁when	-776
▁list	-777
▁won	-778
▁series	-779
–1	-780
ert	-781
▁Par	-782
▁mar	-783
▁Championship	-784
▁rep	-785
▁Rec	-786
▁desc	-787
▁about	-788
ica	-789
8,	-790
▁they	-791
▁Bo	-792
els	-793
▁compet	-794
ett	-795
▁music	-796
▁located	-797
ugust	-798
til	-799
▁mov	-800
itt	-801
6,	-802
levision	-803
ont	-804
▁York	-805
▁later	-806
yn	-807
lished	-808
7,	-809
ement	-810
▁History	-811
▁State	-812
▁Sw	-813
▁sev	-814
▁man	-815
▁build	-816
▁qu	-817
▁end	-818
alif	-819
▁Cent	-820
▁hist	-821
▁Bar	-822
embers	-823
amb	-824
ating	-825
▁Tr	-826
▁club	-827
3.	-828
▁village	-829
▁Rep	-830
▁August	-831
▁may	-832
9,	-833
▁then	-834
▁former	-835
▁dis	-836
inc	-837
▁Gu	-838
▁four	-839
▁only	-840
wards	-841
sp	-842
efore	-843
▁def	-844
anuary	-845
oman	-846
▁released	-847
▁num	-848
▁species	-849
ute	-850
▁Dec	-851
▁All	-852
yl	-853
▁women	-854
▁ph	-855
▁15	-856
▁List	-857
▁Fl	-858
▁Af	-859
▁Pol	-860
▁born	-861
evel	-862
▁Am	-863
▁Co	-864
▁town	-865
▁Eu	-866
apan	-867
ott	-868
iew	-869
thern	-870
eptember	-871
–19	-872
icial	-873
ology	-874
▁March	-875
ke	-876
ys	-877
▁exp	-878
ior	-879
▁ent	-880
yst	-881
▁January	-882
▁tra	-883
4.	-884
▁most	-885
urr	-886
▁trans	-887
ctober	-888
▁until	-889
▁through	-890
8.	-891
5.	-892
▁deaths	-893
its	-894
▁City	-895
aint	-896
▁group	-897
▁July	-898
▁September	-899
▁Med	-900
▁June	-901
com	-902
▁Comp	-903
ociation	-904
ars	-905
ever	-906
7.	-907
eal	-908
▁member	-909
▁sup	-910
evelop	-911
▁Ed	-912
▁Japan	-913
▁After	-914
▁College	-915
▁used	-916
▁describ	-917
▁190	-918
▁him	-919
pril	-920
rench	-921
ower	-922
6.	-923
▁area	-924
ium	-925
▁October	-926
▁rel	-927
▁named	-928
▁rece	-929
▁served	-930
▁bro	-931
201	-932
ather	-933
▁rem	-934
▁10	-935
ull	-936
oss	-937
▁established	-938
ummer	-939
▁including	-940
▁Te	-941
▁.	-942
▁station	-943
▁prov	-944
▁Nor	-945
ung	-946
".	-947
▁more	-948
9.	-949
▁cre	-950
▁Wh	-951
ni	-952
ales	-953
rist	-954
▁Cup	-955
▁can	-956
▁Film	-957
▁inter	-958
ives	-959
ific	-960
igned	-961
▁Ital	-962
▁high	-963
▁Part	-964
▁April	-965
▁par	-966
",	-967
rand	-968
rid	-969
▁Will	-970
angu	-971
ilt	-972
▁produc	-973
▁district	-974
▁French	-975
▁count	-976
▁His	-977
▁appear	-978
▁November	-979
ham	-980
▁Be	-981
▁gu	-982
ym	-983
▁life	-984
▁21	-985
▁orig	-986
▁bl	-987
yp	-988
▁population	-989
ays	-990
▁West	-991
▁dec	-992
por	-993
▁Europ	-994
▁December	-995
oth	-996
▁profess	-997
ages	-998
ried	-999
▁Geor	-1000
ital	-1001
▁mat	-1002
ne	-1003
▁en	-1004
▁189	-1005
▁there	-1006
▁Se	-1007
ana	-1008
▁II	-1009
▁Har	-1010
▁Afric	-1011
▁char	-1012
▁oper	-1013
▁footballers	-1014
▁lead	-1015
▁High	-1016
adem	-1017
▁Res	-1018
ruct	-1019
ines	-1020
▁dep	-1021
▁mon	-1022
ise	-1023
▁Not	-1024
▁call	-1025
ets	-1026
▁described	-1027
▁so	-1028
▁before	-1029
ebru	-1030
▁well	-1031
ebruary	-1032
my	-1033
▁television	-1034
▁Indian	-1035
ows	-1036
ality	-1037
ird	-1038
▁politic	-1039
▁King	-1040
▁lar	-1041
▁cap	-1042
▁against	-1043
ired	-1044
rat	-1045
ces	-1046
▁am	-1047
▁El	-1048
▁male	-1049
ivision	-1050
▁held	-1051
▁inv	-1052
▁int	-1053
▁me	-1054
ino	-1055
▁feat	-1056
▁Bro	-1057
ike	-1058
ution	-1059
bo	-1060
▁being	-1061
▁open	-1062
▁(18	-1063
▁February	-1064
ailway	-1065
▁Man	-1066
▁following	-1067
▁Russ	-1068
▁Ro	-1069
▁International	-1070
ross	-1071
▁De	-1072
iet	-1073
orks	-1074
▁own	-1075
▁run	-1076
▁12	-1077
gram	-1078
▁join	-1079
▁go	-1080
▁would	-1081
▁state	-1082
ka	-1083
▁number	-1084
ille	-1085
unicip	-1086
▁Football	-1087
ky	-1088
ient	-1089
erg	-1090
▁commun	-1091
▁organ	-1092
▁And	-1093
▁near	-1094
ism	-1095
resident	-1096
▁based	-1097
ington	-1098
arn	-1099
▁some	-1100
urg	-1101
ains	-1102
ford	-1103
overnment	-1104
ki	-1105
▁Her	-1106
▁tit	-1107
▁2020	-1108
other	-1109
▁inc	-1110
ission	-1111
ats	-1112
▁La	-1113
ublic	-1114
▁fin	-1115
ystem	-1116
▁dr	-1117
▁house	-1118
2)	-1119
▁Ab	-1120
oric	-1121
▁deb	-1122
ized	-1123
estern	-1124
▁188	-1125
▁final	-1126
▁died	-1127
▁such	-1128
ently	-1129
ove	-1130
▁them	-1131
umni	-1132
ajor	-1133
tt	-1134
ular	-1135
▁En	-1136
▁sm	-1137
▁(200	-1138
imes	-1139
ues	-1140
▁long	-1141
▁develop	-1142
ane	-1143
▁bas	-1144
que	-1145
▁refer	-1146
anguage	-1147
af	-1148
▁Games	-1149
▁ann	-1150
ster	-1151
▁start	-1152
arm	-1153
▁add	-1154
▁met	-1155
iness	-1156
▁William	-1157
."	-1158
▁city	-1159
▁than	-1160
▁national	-1161
▁Gen	-1162
▁band	-1163
atri	-1164
der	-1165
oph	-1166
▁place	-1167
ained	-1168
▁age	-1169
for	-1170
ech	-1171
ze	-1172
ondon	-1173
▁games	-1174
▁north	-1175
▁Christ	-1176
▁do	-1177
ris	-1178
▁player	-1179
ants	-1180
▁head	-1181
led	-1182
che	-1183
▁Olympics	-1184
▁Pre	-1185
▁albums	-1186
▁sur	-1187
▁House	-1188
▁back	-1189
▁Off	-1190
augh	-1191
▁comple	-1192
ister	-1193
▁built	-1194
▁14	-1195
▁published	-1196
ata	-1197
osed	-1198
▁both	-1199
ches	-1200
▁11	-1201
▁child	-1202
ices	-1203
earch	-1204
▁Club	-1205
▁Summer	-1206
▁original	-1207
ject	-1208
era	-1209
uth	-1210
▁members	-1211
ouncil	-1212
ival	-1213
ara	-1214
▁south	-1215
▁main	-1216
▁var	-1217
▁13	-1218
▁Art	-1219
▁London	-1220
usiness	-1221
▁Australian	-1222
▁Party	-1223
▁Australia	-1224
▁class	-1225
▁represent	-1226
3)	-1227
▁single	-1228
▁Mc	-1229
▁,	-1230
-1	-1231
▁Air	-1232
▁while	-1233
elf	-1234
▁Re	-1235
aster	-1236
▁educ	-1237
ords	-1238
▁since	-1239
hem	-1240
umb	-1241
▁em	-1242
000	-1243
▁rev	-1244
▁River	-1245
▁debut	-1246
▁no	-1247
▁mod	-1248
aliforn	-1249
▁game	-1250
▁manag	-1251
▁several	-1252
▁public	-1253
▁Canadian	-1254
▁car	-1255
▁Prov	-1256
ilit	-1257
▁many	-1258
▁company	-1259
artment	-1260
1)	-1261
alifornia	-1262
▁Char	-1263
▁They	-1264
ience	-1265
▁establish	-1266
ring	-1267
ator	-1268
▁called	-1269
rov	-1270
▁Mon	-1271
▁Year	-1272
▁US	-1273
▁England	-1274
▁Roman	-1275
echn	-1276
▁Mal	-1277
ner	-1278
▁California	-1279
acks	-1280
ange	-1281
▁local	-1282
aid	-1283
itions	-1284
▁Dav	-1285
ament	-1286
aul	-1287
▁2010	-1288
▁Gl	-1289
ended	-1290
4)	-1291
▁There	-1292
ple	-1293
5)	-1294
uk	-1295
▁eng	-1296
8)	-1297
▁produ	-1298
▁program	-1299
▁Bel	-1300
ico	-1301
▁air	-1302
eed	-1303
▁Dem	-1304
▁ext	-1305
7)	-1306
▁suc	-1307
6)	-1308
▁Phil	-1309
▁187	-1310
lands	-1311
cc	-1312
idae	-1313
aced	-1314
▁received	-1315
▁()	-1316
▁186	-1317
▁San	-1318
▁Ang	-1319
▁min	-1320
fl	-1321
onom	-1322
field	-1323
▁Park	-1324
ults	-1325
ebs	-1326
▁prom	-1327
ret	-1328
▁Men	-1329
ering	-1330
ty	-1331
▁Pet	-1332
▁Dep	-1333
▁along	-1334
▁Des	-1335
▁same	-1336
▁Sup	-1337
▁event	-1338
▁small	-1339
ideo	-1340
▁X	-1341
▁alumni	-1342
ck	-1343
▁India	-1344
▁return	-1345
minist	-1346
▁Me	-1347
oung	-1348
▁arch	-1349
▁round	-1350
reat	-1351
oks	-1352
▁Mich	-1353
▁medal	-1354
▁began	-1355
▁Town	-1356
ony	-1357
yle	-1358
▁early	-1359
ketball	-1360
▁Per	-1361
co	-1362
▁'	-1363
anish	-1364
ety	-1365
ipp	-1366
rew	-1367
▁Academ	-1368
▁(201	-1369
▁Roy	-1370
ored	-1371
int	-1372
hel	-1373
▁curr	-1374
olic	-1375
ling	-1376
▁Bra	-1377
vel	-1378
▁professional	-1379
adio	-1380
The	-1381
▁son	-1382
ebsite	-1383
▁took	-1384
▁Gro	-1385
▁election	-1386
ensus	-1387
▁ob	-1388
ects	-1389
owever	-1390
ract	-1391
▁home	-1392
ured	-1393
▁building	-1394
▁Ne	-1395
ene	-1396
▁law	-1397
▁international	-1398
ency	-1399
▁bel	-1400
useum	-1401
▁Music	-1402
▁land	-1403
▁Sch	-1404
▁Italian	-1405
▁design	-1406
aking	-1407
▁Bu	-1408
▁Women	-1409
ania	-1410
iography	-1411
omin	-1412
▁Port	-1413
9)	-1414
▁Mo	-1415
ourt	-1416
▁po	-1417
▁system	-1418
itar	-1419
▁fem	-1420
lin	-1421
ually	-1422
▁Flor	-1423
ection	-1424
ature	-1425
ption	-1426
ones	-1427
thlet	-1428
▁include	-1429
osition	-1430
ha	-1431
▁dist	-1432
▁general	-1433
idd	-1434
▁miss	-1435
gin	-1436
yd	-1437
people	-1438
▁East	-1439
▁France	-1440
▁married	-1441
ised	-1442
▁old	-1443
me	-1444
ief	-1445
ards	-1446
erb	-1447
▁Canada	-1448
▁Division	-1449
▁Cor	-1450
▁disc	-1451
lection	-1452
▁la	-1453
▁history	-1454
▁acc	-1455
na	-1456
iev	-1457
ricket	-1458
atriate	-1459
▁No	-1460
▁Ag	-1461
▁century	-1462
▁Award	-1463
alth	-1464
▁winn	-1465
row	-1466
▁show	-1467
ama	-1468
0)	-1469
▁line	-1470
ilitary	-1471
reet	-1472
radu	-1473
▁dif	-1474
ided	-1475
▁moved	-1476
ode	-1477
▁Championships	-1478
ournal	-1479
▁vers	-1480
ally	-1481
▁poin	-1482
▁Association	-1483
▁top	-1484
iter	-1485
▁occ	-1486
▁short	-1487
ights	-1488
ides	-1489
▁set	-1490
▁written	-1491
ours	-1492
ument	-1493
▁nov	-1494
▁FC	-1495
▁award	-1496
▁Dr	-1497
▁each	-1498
▁six	-1499
raft	-1500
ship	-1501
▁title	-1502
▁Mor	-1503
▁Val	-1504
ible	-1505
ournament	-1506
eek	-1507
▁2006	-1508
▁Que	-1509
▁person	-1510
▁2011	-1511
▁songs	-1512
▁contin	-1513
erence	-1514
ya	-1515
astern	-1516
▁Qu	-1517
olv	-1518
▁Sing	-1519
▁Sports	-1520
▁establishments	-1521
▁Historic	-1522
tal	-1523
▁inst	-1524
ij	-1525
ges	-1526
▁term	-1527
▁European	-1528
▁pass	-1529
▁Church	-1530
▁Sen	-1531
ler	-1532
▁appoin	-1533
▁ref	-1534
▁joined	-1535
▁municip	-1536
ps	-1537
▁teams	-1538
reek	-1539
▁cov	-1540
▁will	-1541
▁official	-1542
order	-1543
side	-1544
▁worked	-1545
▁within	-1546
ately	-1547
▁Career	-1548
▁Province	-1549
▁prev	-1550
▁five	-1551
▁Records	-1552
▁present	-1553
▁children	-1554
ockey	-1555
sc	-1556
▁voc	-1557
▁Council	-1558
▁(199	-1559
ari	-1560
▁business	-1561
ued	-1562
▁sports	-1563
▁Olympic	-1564
ociety	-1565
▁Sl	-1566
▁Minist	-1567
aff	-1568
▁Mount	-1569
▁Tur	-1570
ani	-1571
▁produced	-1572
▁1,	-1573
▁major	-1574
▁Royal	-1575
▁politician	-1576
▁book	-1577
▁now	-1578
ility	-1579
▁185	-1580
▁third	-1581
..	-1582
▁Rober	-1583
ald	-1584
bert	-1585
ugby	-1586
▁field	-1587
▁Kh	-1588
ministr	-1589
▁around	-1590
ording	-1591
▁Thom	-1592
▁2008	-1593
ago	-1594
arliam	-1595
aving	-1596
▁George	-1597
alk	-1598
▁leg	-1599
▁Mex	-1600
med	-1601
▁2000	-1602
▁Vir	-1603
▁Miss	-1604
▁elected	-1605
ribut	-1606
dom	-1607
▁Lou	-1608
yr	-1609
uck	-1610
▁places	-1611
arliament	-1612
stitute	-1613
▁best	-1614
ble	-1615
▁sl	-1616
ison	-1617
outhern	-1618
▁2012	-1619
▁last	-1620
ful	-1621
▁coach	-1622
akes	-1623
▁website	-1624
▁government	-1625
▁side	-1626
▁left	-1627
▁Cast	-1628
ve	-1629
▁post	-1630
▁stat	-1631
▁James	-1632
▁$	-1633
▁Commun	-1634
▁Japanese	-1635
▁const	-1636
uthor	-1637
▁sim	-1638
▁Sm	-1639
▁Cap	-1640
lected	-1641
▁directed	-1642
▁stations	-1643
rain	-1644
▁fac	-1645
iven	-1646
▁Paul	-1647
-19	-1648
▁included	-1649
▁Germany	-1650
▁2016	-1651
▁Act	-1652
ville	-1653
▁church	-1654
ida	-1655
▁Group	-1656
▁Arch	-1657
ealand	-1658
lex	-1659
urs	-1660
▁First	-1661
▁struct	-1662
▁Awards	-1663
▁success	-1664
▁African	-1665
raw	-1666
▁site	-1667
▁Zealand	-1668
▁Road	-1669
ocial	-1670
▁Gr	-1671
ries	-1672
▁Sal	-1673
▁Scott	-1674
▁Nav	-1675
▁Jos	-1676
▁league	-1677
▁Railway	-1678
▁sign	-1679
ecut	-1680
tar	-1681
▁world	-1682
iod	-1683
▁Em	-1684
▁25	-1685
▁Tex	-1686
▁America	-1687
▁Swed	-1688
ishop	-1689
ger	-1690
▁ever	-1691
▁Rich	-1692
off	-1693
hold	-1694
of	-1695
omb	-1696
▁Central	-1697
▁Leg	-1698
ridge	-1699
ena	-1700
▁During	-1701
▁Rev	-1702
▁From	-1703
the	-1704
▁due	-1705
▁mag	-1706
ause	-1707
rol	-1708
ius	-1709
▁Pal	-1710
▁father	-1711
▁2009	-1712
ael	-1713
▁Trans	-1714
CA	-1715
▁resp	-1716
▁rest	-1717
ically	-1718
▁2007	-1719
osp	-1720
▁missing	-1721
▁||	-1722
▁director	-1723
▁2018	-1724
reg	-1725
▁started	-1726
▁adv	-1727
▁Mary	-1728
▁Pri	-1729
▁General	-1730
▁Play	-1731
▁video	-1732
▁Russian	-1733
▁created	-1734
▁engine	-1735
▁ep	-1736
▁founded	-1737
▁2014	-1738
▁stand	-1739
▁works	-1740
urther	-1741
▁guitar	-1742
▁2013	-1743
itor	-1744
lo	-1745
▁non	-1746
aseball	-1747
▁did	-1748
acter	-1749
▁gradu	-1750
ota	-1751
▁water	-1752
▁Army	-1753
▁Popul	-1754
omet	-1755
▁Li	-1756
▁appointed	-1757
▁support	-1758
odes	-1759
ected	-1760
nel	-1761
epend	-1762
▁David	-1763
▁events	-1764
day	-1765
tr	-1766
ander	-1767
serv	-1768
gest	-1769
▁association	-1770
ush	-1771
alf	-1772
thers	-1773
▁Ber	-1774
▁basketball	-1775
▁Hol	-1776
reen	-1777
▁camp	-1778
▁opened	-1779
ona	-1780
ox	-1781
▁Union	-1782
▁community	-1783
itect	-1784
anies	-1785
▁Educ	-1786
isl	-1787
▁Vill	-1788
▁One	-1789
▁star	-1790
ization	-1791
.,	-1792
line	-1793
▁Places	-1794
▁2015	-1795
▁Acc	-1796
uel	-1797
app	-1798
▁service	-1799
ma	-1800
cer	-1801
▁use	-1802
▁sett	-1803
ially	-1804
embly	-1805
ney	-1806
▁completed	-1807
▁Register	-1808
ink	-1809
▁2017	-1810
▁Red	-1811
▁total	-1812
▁Mag	-1813
▁perform	-1814
ston	-1815
zil	-1816
ming	-1817
▁ship	-1818
ams	-1819
▁China	-1820
▁train	-1821
esh	-1822
▁down	-1823
ocrat	-1824
ivil	-1825
▁we	-1826
▁tournament	-1827
leg	-1828
▁typ	-1829
▁Mart	-1830
ini	-1831
▁red	-1832
▁Person	-1833
▁census	-1834
rest	-1835
▁footballer	-1836
▁Mad	-1837
▁any	-1838
west	-1839
▁Song	-1840
▁Republic	-1841
▁Law	-1842
▁Best	-1843
language	-1844
▁announc	-1845
▁Stud	-1846
▁Wash	-1847
▁Cath	-1848
▁genus	-1849
▁Ev	-1850
▁Island	-1851
de	-1852
ference	-1853
▁Hen	-1854
▁mill	-1855
▁Virgin	-1856
▁Academy	-1857
▁Lu	-1858
rama	-1859
burg	-1860
▁daugh	-1861
▁2019	-1862
▁Exp	-1863
▁30	-1864
▁100	-1865
▁Ir	-1866
▁imp	-1867
ictor	-1868
▁Street	-1869
▁country	-1870
▁Kingdom	-1871
aur	-1872
riend	-1873
▁road	-1874
▁184	-1875
▁Society	-1876
▁sw	-1877
mar	-1878
ched	-1879
berg	-1880
bor	-1881
▁Mont	-1882
▁Brazil	-1883
ti	-1884
oor	-1885
▁Av	-1886
▁repl	-1887
▁mark	-1888
▁Africa	-1889
ground	-1890
▁sold	-1891
▁hel	-1892
▁Hall	-1893
▁Carol	-1894
▁Met	-1895
▁mid	-1896
uff	-1897
iction	-1898
itz	-1899
▁Washington	-1900
duct	-1901
▁Grand	-1902
▁cricket	-1903
▁Early	-1904
▁promot	-1905
ody	-1906
▁previous	-1907
▁Notes	-1908
▁signed	-1909
▁these	-1910
▁1990	-1911
▁Western	-1912
▁lo	-1913
ta	-1914
▁2004	-1915
▁Pan	-1916
▁large	-1917
▁Spanish	-1918
▁av	-1919
▁Hon	-1920
▁author	-1921
▁Its	-1922
▁east	-1923
▁buildings	-1924
▁Mass	-1925
▁det	-1926
irl	-1927
work	-1928
ruction	-1929
▁vol	-1930
cast	-1931
▁el	-1932
▁Kore	-1933
ention	-1934
▁Texas	-1935
▁read	-1936
tain	-1937
▁vocals	-1938
▁Bas	-1939
orpor	-1940
▁del	-1941
▁recorded	-1942
ellow	-1943
abor	-1944
▁km	-1945
▁cr	-1946
lement	-1947
estival	-1948
▁Robert	-1949
ulture	-1950
▁Kn	-1951
▁win	-1952
▁eff	-1953
▁Institute	-1954
▁president	-1955
eph	-1956
▁activ	-1957
▁host	-1958
itional	-1959
▁period	-1960
▁Thomas	-1961
edy	-1962
ole	-1963
ily	-1964
▁Cal	-1965
iles	-1966
ense	-1967
ola	-1968
ycl	-1969
▁Films	-1970
▁just	-1971
▁Penn	-1972
reland	-1973
▁2005	-1974
eration	-1975
▁style	-1976
▁listed	-1977
▁ne	-1978
▁tw	-1979
gar	-1980
▁Museum	-1981
▁24	-1982
▁Louis	-1983
▁went	-1984
ified	-1985
▁str	-1986
▁Turk	-1987
▁Democrat	-1988
▁young	-1989
▁given	-1990
▁Members	-1991
rab	-1992
▁1980	-1993
▁region	-1994
▁President	-1995
▁research	-1996
forman	-1997
▁deg	-1998
▁=	-1999
▁west	-2000
atic	-2001
▁Tour	-2002
▁Official	-2003
iga	-2004
▁My	-2005
irc	-2006
ala	-2007
ecret	-2008
ext	-2009
▁role	-2010
▁Sam	-2011
ize	-2012
▁We	-2013
▁port	-2014
▁However	-2015
urb	-2016
▁aver	-2017
▁day	-2018
ylv	-2019
ences	-2020
▁sit	-2021
men	-2022
aim	-2023
ources	-2024
▁squ	-2025
▁differ	-2026
▁Serv	-2027
▁Assembly	-2028
▁Vol	-2029
▁Hill	-2030
ule	-2031
▁Don	-2032
ibr	-2033
▁Georg	-2034
▁Fed	-2035
21	-2036
▁hon	-2037
▁singles	-2038
▁vis	-2039
▁Charles	-2040
▁Franc	-2041
▁trad	-2042
▁appro	-2043
ittee	-2044
wood	-2045
▁seasons	-2046
▁announced	-2047
▁TV	-2048
▁Catholic	-2049
▁Arg	-2050
▁Chin	-2051
iddle	-2052
▁Bay	-2053
ively	-2054
inals	-2055
aus	-2056
uation	-2057
▁By	-2058
▁Company	-2059
▁Black	-2060
▁You	-2061
▁|-	-2062
oon	-2063
▁ec	-2064
▁railway	-2065
▁pri	-2066
ological	-2067
rote	-2068
▁returned	-2069
▁actress	-2070
alt	-2071
▁Lake	-2072
ón	-2073
▁vot	-2074
▁education	-2075
▁Cong	-2076
▁Medal	-2077
▁version	-2078
▁particip	-2079
utch	-2080
▁novel	-2081
▁household	-2082
▁(198	-2083
ras	-2084
ope	-2085
▁Virginia	-2086
▁With	-2087
▁playing	-2088
▁Sant	-2089
ances	-2090
▁female	-2091
ots	-2092
▁politicians	-2093
▁late	-2094
▁2022	-2095
uman	-2096
▁led	-2097
▁Athlet	-2098
▁Victor	-2099
▁special	-2100
▁race	-2101
▁prot	-2102
rd	-2103
▁Polit	-2104
ivid	-2105
▁Department	-2106
▁To	-2107
▁Saint	-2108
▁administr	-2109
gether	-2110
▁Lat	-2111
▁Parliament	-2112
▁histor	-2113
▁expatriate	-2114
▁match	-2115
▁183	-2116
▁hand	-2117
▁Gold	-2118
ators	-2119
▁paint	-2120
▁daughter	-2121
▁Europe	-2122
ula	-2123
shire	-2124
though	-2125
▁Bur	-2126
▁Alex	-2127
hi	-2128
▁track	-2129
▁2021	-2130
▁journal	-2131
▁pe	-2132
▁Ben	-2133
acy	-2134
▁architect	-2135
▁Mer	-2136
▁Del	-2137
▁consid	-2138
▁companies	-2139
▁Pat	-2140
▁wife	-2141
istan	-2142
▁Court	-2143
▁2002	-2144
olf	-2145
ached	-2146
▁qualif	-2147
–18	-2148
▁position	-2149
ada	-2150
▁artist	-2151
▁various	-2152
▁different	-2153
▁Spec	-2154
▁Mel	-2155
▁competed	-2156
▁Great	-2157
writ	-2158
BC	-2159
▁war	-2160
▁sil	-2161
▁prim	-2162
▁Tor	-2163
acing	-2164
▁Track	-2165
▁office	-2166
icles	-2167
▁equ	-2168
▁pol	-2169
▁Education	-2170
▁Other	-2171
▁Mac	-2172
▁Ill	-2173
▁Angel	-2174
▁sk	-2175
▁Di	-2176
▁Life	-2177
▁common	-2178
▁Public	-2179
▁Mat	-2180
istics	-2181
eh	-2182
▁iss	-2183
▁22	-2184
▁Second	-2185
atives	-2186
ady	-2187
ription	-2188
oul	-2189
ared	-2190
▁Ter	-2191
▁result	-2192
ano	-2193
ined	-2194
▁Ireland	-2195
▁Mus	-2196
▁Chinese	-2197
▁Go	-2198
▁—	-2199
year	-2200
hib	-2201
▁came	-2202
▁Bill	-2203
▁offic	-2204
▁writers	-2205
▁political	-2206
▁Ec	-2207
▁Camp	-2208
▁Ol	-2209
azine	-2210
rick	-2211
▁2003	-2212
▁times	-2213
▁Cro	-2214
▁month	-2215
mier	-2216
sk	-2217
▁Scot	-2218
▁Asian	-2219
ories	-2220
band	-2221
▁currently	-2222
▁Green	-2223
ura	-2224
ump	-2225
ying	-2226
▁UK	-2227
▁average	-2228
▁23	-2229
50	-2230
attle	-2231
▁production	-2232
ishing	-2233
▁hockey	-2234
ogn	-2235
▁Paris	-2236
igan	-2237
▁still	-2238
▁bre	-2239
▁opp	-2240
▁among	-2241
▁crit	-2242
▁Tom	-2243
olution	-2244
▁radio	-2245
▁schools	-2246
ops	-2247
▁appeared	-2248
▁ren	-2249
▁character	-2250
▁Carolina	-2251
ylvania	-2252
▁Ob	-2253
▁1970	-2254
za	-2255
▁Cont	-2256
atural	-2257
▁very	-2258
▁Christian	-2259
▁tem	-2260
▁dem	-2261
▁Land	-2262
▁competition	-2263
▁party	-2264
iment	-2265
formation	-2266
▁singer	-2267
▁2001	-2268
▁broad	-2269
▁books	-2270
▁plays	-2271
asc	-2272
▁municipality	-2273
▁techn	-2274
▁wrote	-2275
aper	-2276
▁like	-2277
aches	-2278
▁another	-2279
▁artists	-2280
ouses	-2281
▁fre	-2282
ittle	-2283
▁full	-2284
ecutive	-2285
▁sen	-2286
▁Wil	-2287
▁Michael	-2288
▁gl	-2289
▁Wales	-2290
ella	-2291
▁those	-2292
ms	-2293
▁Pe	-2294
▁constit	-2295
ultural	-2296
▁drama	-2297
▁According	-2298
▁medalists	-2299
▁Italy	-2300
▁Jun	-2301
▁aff	-2302
▁Def	-2303
▁Biography	-2304
cept	-2305
▁awarded	-2306
▁groups	-2307
▁development	-2308
▁performan	-2309
▁finished	-2310
▁Belg	-2311
ita	-2312
▁tour	-2313
▁/	-2314
uty	-2315
ennis	-2316
▁Super	-2317
="	-2318
▁Center	-2319
▁Arts	-2320
▁Mexico	-2321
abit	-2322
▁represented	-2323
ests	-2324
▁Che	-2325
▁military	-2326
▁phot	-2327
▁Poland	-2328
imately	-2329
▁make	-2330
▁3:	-2331
ati	-2332
▁every	-2333
over	-2334
▁help	-2335
▁Scottish	-2336
atre	-2337
▁Penns	-2338
▁Profess	-2339
oma	-2340
aker	-2341
▁chang	-2342
▁involv	-2343
ought	-2344
▁exper	-2345
▁Dan	-2346
ning	-2347
living	-2348
▁Iran	-2349
▁surn	-2350
▁pres	-2351
▁bar	-2352
▁half	-2353
▁Oh	-2354
gy	-2355
ream	-2356
itch	-2357
enth	-2358
▁Pennsylvania	-2359
▁level	-2360
▁Sim	-2361
▁compos	-2362
ront	-2363
▁could	-2364
iron	-2365
▁report	-2366
ado	-2367
aly	-2368
▁Irish	-2369
overnor	-2370
▁2,	-2371
unct	-2372
▁Frank	-2373
▁living	-2374
▁results	-2375
▁popular	-2376
▁Press	-2377
▁college	-2378
ospital	-2379
▁Tax	-2380
andid	-2381
▁Inter	-2382
23	-2383
ili	-2384
▁Build	-2385
▁1999	-2386
▁conv	-2387
▁because	-2388
▁1960	-2389
▁Richard	-2390
▁cor	-2391
▁epis	-2392
▁Minister	-2393
▁having	-2394
▁gold	-2395
▁Populated	-2396
▁Atl	-2397
▁1996	-2398
▁When	-2399
▁Florida	-2400
▁26	-2401
▁Im	-2402
▁conc	-2403
be	-2404
▁million	-2405
aud	-2406
▁Argent	-2407
▁tri	-2408
▁init	-2409
▁Win	-2410
▁power	-2411
ependent	-2412
kn	-2413
hire	-2414
▁review	-2415
▁formed	-2416
emic	-2417
▁0	-2418
▁teach	-2419
ership	-2420
▁degree	-2421
▁28	-2422
arch	-2423
▁mult	-2424
▁Min	-2425
arter	-2426
▁Direct	-2427
ases	-2428
▁rock	-2429
ocument	-2430
ness	-2431
och	-2432
mit	-2433
▁ten	-2434
▁stage	-2435
▁1998	-2436
rated	-2437
ape	-2438
Amer	-2439
▁val	-2440
▁project	-2441
▁Carl	-2442
wh	-2443
▁(197	-2444
▁Henry	-2445
▁Gall	-2446
ged	-2447
ivate	-2448
▁Emp	-2449
▁said	-2450
▁championship	-2451
▁story	-2452
▁27	-2453
▁Cat	-2454
ansas	-2455
22	-2456
▁assist	-2457
iger	-2458
▁di	-2459
▁areas	-2460
▁Dutch	-2461
10	-2462
▁Government	-2463
▁Los	-2464
▁mount	-2465
▁order	-2466
rav	-2467
▁2.	-2468
▁lost	-2469
▁Columb	-2470
▁Navy	-2471
ibl	-2472
ending	-2473
▁Elect	-2474
▁der	-2475
aries	-2476
▁Chic	-2477
▁writer	-2478
▁turn	-2479
ilar	-2480
iana	-2481
▁union	-2482
▁Peter	-2483
▁black	-2484
▁plant	-2485
30	-2486
▁originally	-2487
▁Sir	-2488
ria	-2489
ww	-2490
sequ	-2491
▁Democratic	-2492
aining	-2493
uter	-2494
▁often	-2495
hood	-2496
▁live	-2497
▁intro	-2498
▁Pak	-2499
occer	-2500
yc	-2501
▁White	-2502
▁Sur	-2503
oral	-2504
icle	-2505
▁Main	-2506
ification	-2507
airs	-2508
▁become	-2509
▁Uk	-2510
▁1.	-2511
olk	-2512
oviet	-2513
etwork	-2514
▁eight	-2515
unt	-2516
▁1992	-2517
▁conn	-2518
▁indust	-2519
alls	-2520
▁Techn	-2521
▁together	-2522
eth	-2523
▁App	-2524
▁services	-2525
▁nor	-2526
▁includes	-2527
ribution	-2528
ique	-2529
▁z	-2530
▁Fin	-2531
▁Mil	-2532
dis	-2533
▁Northern	-2534
▁Den	-2535
▁import	-2536
▁div	-2537
right	-2538
▁Mill	-2539
ua	-2540
▁Rock	-2541
craft	-2542
▁brother	-2543
▁conf	-2544
▁requ	-2545
ora	-2546
ugu	-2547
▁proper	-2548
thod	-2549
▁points	-2550
▁pract	-2551
▁release	-2552
▁students	-2553
wan	-2554
▁Final	-2555
rael	-2556
ced	-2557
atch	-2558
▁jud	-2559
col	-2560
heast	-2561
▁Swedish	-2562
▁Smith	-2563
▁Ha	-2564
▁Bul	-2565
▁Jew	-2566
eter	-2567
American	-2568
har	-2569
▁attended	-2570
▁Festival	-2571
▁lab	-2572
ibrary	-2573
▁Sil	-2574
▁Municip	-2575
▁Kar	-2576
▁Sk	-2577
▁working	-2578
oo	-2579
▁es	-2580
inois	-2581
▁Russia	-2582
▁Order	-2583
▁few	-2584
uit	-2585
▁hold	-2586
iff	-2587
iol	-2588
han	-2589
▁Cz	-2590
▁matches	-2591
▁kill	-2592
▁contract	-2593
ece	-2594
▁phys	-2595
▁Sub	-2596
etts	-2597
ising	-2598
▁cast	-2599
FL	-2600
▁laun	-2601
▁:	-2602
▁next	-2603
uz	-2604
emor	-2605
eck	-2606
▁Science	-2607
rey	-2608
▁language	-2609
arian	-2610
▁Rh	-2611
▁earn	-2612
▁mus	-2613
iano	-2614
▁0.	-2615
▁Illinois	-2616
achus	-2617
▁Greek	-2618
▁1994	-2619
▁features	-2620
▁Ma	-2621
FA	-2622
azz	-2623
▁department	-2624
ination	-2625
▁designed	-2626
▁Ohio	-2627
–0	-2628
gen	-2629
▁clubs	-2630
ali	-2631
▁1997	-2632
apt	-2633
▁Norw	-2634
orporated	-2635
xt	-2636
ranch	-2637
▁Er	-2638
▁Township	-2639
▁listing	-2640
▁Spain	-2641
▁Class	-2642
utes	-2643
▁Chicago	-2644
fact	-2645
ny	-2646
▁river	-2647
▁Results	-2648
▁grow	-2649
den	-2650
▁ter	-2651
ength	-2652
ambig	-2653
▁studio	-2654
▁Du	-2655
play	-2656
▁elections	-2657
▁et	-2658
▁actors	-2659
iro	-2660
la	-2661
▁structures	-2662
▁friend	-2663
▁Represent	-2664
▁Alb	-2665
▁coll	-2666
▁beg	-2667
▁mix	-2668
ios	-2669
achusetts	-2670
ambiguation	-2671
ampion	-2672
▁sol	-2673
▁approx	-2674
▁Out	-2675
▁rank	-2676
ender	-2677
▁candid	-2678
▁shows	-2679
▁cross	-2680
ateg	-2681
▁studied	-2682
min	-2683
lad	-2684
back	-2685
ication	-2686
▁Day	-2687
▁Es	-2688
eated	-2689
▁Ur	-2690
▁Massachusetts	-2691
25	-2692
iding	-2693
▁1995	-2694
▁edition	-2695
▁Personal	-2696
▁rugby	-2697
▁families	-2698
eel	-2699
▁Sar	-2700
aves	-2701
▁scored	-2702
▁nomin	-2703
▁surv	-2704
▁using	-2705
▁goal	-2706
arth	-2707
▁du	-2708
▁developed	-2709
▁Tro	-2710
▁Polish	-2711
duction	-2712
▁Israel	-2713
▁liter	-2714
mon	-2715
duced	-2716
▁Soviet	-2717
board	-2718
▁29	-2719
▁minist	-2720
ume	-2721
▁current	-2722
▁Sun	-2723
▁Ser	-2724
idents	-2725
▁Ann	-2726
▁Vo	-2727
▁featured	-2728
▁CD	-2729
rian	-2730
ye	-2731
▁bass	-2732
▁Committee	-2733
oming	-2734
II	-2735
▁Rob	-2736
▁individ	-2737
▁prop	-2738
file	-2739
▁[	-2740
ersey	-2741
fect	-2742
▁producer	-2743
▁Region	-2744
▁Michigan	-2745
▁Brown	-2746
disambiguation	-2747
ums	-2748
ceed	-2749
▁Loc	-2750
aken	-2751
▁1988	-2752
▁Hung	-2753
▁1991	-2754
▁aut	-2755
pe	-2756
ores	-2757
▁comedy	-2758
▁Disc	-2759
ration	-2760
▁Ox	-2761
ato	-2762
▁transl	-2763
flu	-2764
▁performed	-2765
▁right	-2766
▁product	-2767
▁Minn	-2768
track	-2769
▁Cr	-2770
▁Mos	-2771
oe	-2772
▁Kent	-2773
▁Ros	-2774
imb	-2775
▁mother	-2776
▁Open	-2777
time	-2778
▁(196	-2779
▁expl	-2780
▁Bor	-2781
▁Love	-2782
▁Und	-2783
▁retired	-2784
▁3,	-2785
▁mot	-2786
▁(20	-2787
▁Sportspeople	-2788
7),	-2789
ulty	-2790
▁northern	-2791
used	-2792
▁constitu	-2793
▁Dou	-2794
▁Major	-2795
aign	-2796
anda	-2797
ead	-2798
▁fact	-2799
▁Camb	-2800
▁week	-2801
▁Radio	-2802
bur	-2803
3),	-2804
adium	-2805
▁Commission	-2806
St	-2807
▁southern	-2808
▁actor	-2809
ids	-2810
▁These	-2811
▁associ	-2812
▁Television	-2813
▁Mark	-2814
▁MP	-2815
istricts	-2816
▁recogn	-2817
ette	-2818
inning	-2819
▁Top	-2820
▁Os	-2821
iences	-2822
▁Czech	-2823
▁central	-2824
▁ground	-2825
egian	-2826
▁Bre	-2827
▁Bang	-2828
ecretary	-2829
eland	-2830
6),	-2831
▁Team	-2832
4),	-2833
▁Hot	-2834
▁sep	-2835
unk	-2836
▁Scotland	-2837
▁Do	-2838
▁Liber	-2839
head	-2840
ele	-2841
▁dou	-2842
▁poss	-2843
▁process	-2844
iers	-2845
▁Found	-2846
▁1920	-2847
▁1950	-2848
▁Boy	-2849
atter	-2850
▁continued	-2851
▁approximately	-2852
atory	-2853
▁seat	-2854
merc	-2855
▁Just	-2856
▁Angeles	-2857
ronze	-2858
▁considered	-2859
▁point	-2860
▁sn	-2861
▁Gh	-2862
▁Joseph	-2863
▁End	-2864
known	-2865
▁similar	-2866
▁Notable	-2867
hest	-2868
▁much	-2869
▁univers	-2870
Ch	-2871
▁addition	-2872
▁Geography	-2873
aka	-2874
▁Georgia	-2875
awa	-2876
▁Since	-2877
▁Further	-2878
ask	-2879
▁cour	-2880
▁surname	-2881
▁great	-2882
anufact	-2883
5),	-2884
▁(193	-2885
itors	-2886
enue	-2887
▁pat	-2888
2),	-2889
annel	-2890
▁Philipp	-2891
▁comb	-2892
▁sent	-2893
ware	-2894
ude	-2895
▁invest	-2896
▁Norwegian	-2897
▁seven	-2898
▁Back	-2899
▁administrative	-2900
▁Az	-2901
▁acqu	-2902
▁social	-2903
▁Cross	-2904
▁(17	-2905
▁reading	-2906
▁staff	-2907
urd	-2908
▁Congress	-2909
▁white	-2910
ials	-2911
ils	-2912
▁Po	-2913
isted	-2914
ca	-2915
amily	-2916
erve	-2917
▁graduated	-2918
ements	-2919
▁Series	-2920
iting	-2921
▁ran	-2922
▁enc	-2923
pro	-2924
well	-2925
▁Southern	-2926
sy	-2927
▁Fred	-2928
▁construction	-2929
ource	-2930
▁But	-2931
ador	-2932
rich	-2933
▁Military	-2934
▁4:	-2935
▁ice	-2936
road	-2937
▁Pac	-2938
▁Two	-2939
ipl	-2940
mark	-2941
▁FI	-2942
▁Rout	-2943
▁anim	-2944
▁descent	-2945
▁rul	-2946
▁Mod	-2947
▁owned	-2948
▁document	-2949
▁“	-2950
chiev	-2951
▁50	-2952
▁Columbia	-2953
ima	-2954
▁1993	-2955
8),	-2956
▁sem	-2957
▁31	-2958
▁division	-2959
ailable	-2960
roll	-2961
▁fourth	-2962
gress	-2963
40	-2964
ells	-2965
▁making	-2966
▁if	-2967
▁board	-2968
▁take	-2969
▁professor	-2970
▁allow	-2971
opp	-2972
ctor	-2973
–200	-2974
▁Old	-2975
▁Research	-2976
▁senior	-2977
▁ra	-2978
▁Mah	-2979
ux	-2980
▁Songs	-2981
▁Gar	-2982
▁pain	-2983
▁pos	-2984
lor	-2985
antic	-2986
▁light	-2987
▁transfer	-2988
▁incre	-2989
stitut	-2990
ublican	-2991
▁days	-2992
▁Stev	-2993
▁park	-2994
ensive	-2995
▁Fre	-2996
▁Station	-2997
▁Valley	-2998
ein	-2999
▁neigh	-3000
▁across	-3001
▁Born	-3002
ić	-3003
▁Album	-3004
idge	-3005
▁capital	-3006
▁Arab	-3007
ably	-3008
▁Sol	-3009
▁Jersey	-3010
▁largest	-3011
▁econom	-3012
▁1989	-3013
▁So	-3014
▁Wood	-3015
aya	-3016
▁goals	-3017
ira	-3018
ien	-3019
▁Star	-3020
▁poet	-3021
ploy	-3022
▁newsp	-3023
mond	-3024
▁Serb	-3025
▁sportspeople	-3026
▁contains	-3027
view	-3028
▁without	-3029
erry	-3030
▁2023	-3031
▁Line	-3032
oths	-3033
ela	-3034
▁Up	-3035
ko	-3036
▁even	-3037
▁Jud	-3038
▁bi	-3039
▁beh	-3040
ications	-3041
aged	-3042
▁what	-3043
▁lim	-3044
▁Service	-3045
▁Slov	-3046
▁chair	-3047
▁Empire	-3048
▁academ	-3049
▁athlet	-3050
itive	-3051
▁however	-3052
iy	-3053
oint	-3054
▁performance	-3055
▁Rugby	-3056
▁private	-3057
viron	-3058
▁center	-3059
▁Are	-3060
▁Ok	-3061
▁Legisl	-3062
▁body	-3063
icated	-3064
▁sound	-3065
▁Desc	-3066
imate	-3067
▁Mic	-3068
▁(195	-3069
uts	-3070
jects	-3071
▁ill	-3072
1),	-3073
▁!	-3074
▁relations	-3075
go	-3076
▁Edward	-3077
▁magazine	-3078
▁separ	-3079
▁Conference	-3080
▁Hel	-3081
▁Social	-3082
▁island	-3083
▁Squ	-3084
akh	-3085
ites	-3086
▁low	-3087
▁winning	-3088
vers	-3089
▁available	-3090
wer	-3091
▁(2	-3092
▁Asia	-3093
▁names	-3094
▁Ap	-3095
▁Engine	-3096
onsin	-3097
TV	-3098
onn	-3099
isconsin	-3100
▁Martin	-3101
▁Board	-3102
estab	-3103
▁way	-3104
▁claim	-3105
▁Ep	-3106
▁foc	-3107
//	-3108
ouri	-3109
▁baseball	-3110
▁Young	-3111
ja	-3112
alities	-3113
ested	-3114
less	-3115
AS	-3116
▁1984	-3117
▁Conn	-3118
▁others	-3119
▁civil	-3120
▁Conserv	-3121
▁successful	-3122
▁length	-3123
▁Bibl	-3124
▁musical	-3125
▁draw	-3126
anding	-3127
▁province	-3128
▁ident	-3129
▁previously	-3130
▁inh	-3131
▁Tri	-3132
▁Wisconsin	-3133
ero	-3134
wa	-3135
owers	-3136
state	-3137
://	-3138
▁editor	-3139
▁Islands	-3140
erous	-3141
▁contribut	-3142
ergy	-3143
▁Big	-3144
eds	-3145
▁Baseball	-3146
ems	-3147
▁conduct	-3148
▁mater	-3149
yth	-3150
una	-3151
ift	-3152
aps	-3153
▁Oper	-3154
▁serving	-3155
ailed	-3156
▁free	-3157
▁Republican	-3158
▁Oxford	-3159
▁Bi	-3160
▁Expatriate	-3161
▁farm	-3162
▁Sev	-3163
▁replaced	-3164
▁aircraft	-3165
▁181	-3166
▁Common	-3167
▁Dist	-3168
▁Mr	-3169
▁4,	-3170
▁wood	-3171
▁dest	-3172
▁Bank	-3173
▁Dev	-3174
▁Long	-3175
60	-3176
▁fund	-3177
bury	-3178
▁important	-3179
▁2019,	-3180
▁further	-3181
▁key	-3182
▁gr	-3183
▁fif	-3184
▁Transport	-3185
oir	-3186
▁Jim	-3187
▁range	-3188
▁sum	-3189
▁grand	-3190
▁Villages	-3191
▁Cam	-3192
▁households	-3193
▁Haw	-3194
▁lies	-3195
▁Luc	-3196
▁county	-3197
▁ins	-3198
▁Winter	-3199
▁Lab	-3200
izations	-3201
▁Bal	-3202
▁modern	-3203
9),	-3204
owa	-3205
esota	-3206
▁Place	-3207
▁Premier	-3208
most	-3209
burgh	-3210
▁Hong	-3211
▁closed	-3212
▁active	-3213
▁Bishop	-3214
▁employ	-3215
▁Kong	-3216
▁Inc	-3217
▁Route	-3218
emet	-3219
isco	-3220
▁circ	-3221
▁appl	-3222
ilities	-3223
▁access	-3224
▁(;	-3225
▁exhib	-3226
idence	-3227
▁silver	-3228
incip	-3229
aut	-3230
▁Over	-3231
▁elev	-3232
▁(,	-3233
▁How	-3234
▁real	-3235
–201	-3236
▁sch	-3237
rant	-3238
onia	-3239
▁Chief	-3240
▁Tw	-3241
▁2018,	-3242
▁Victoria	-3243
▁Albert	-3244
▁runs	-3245
▁Minnesota	-3246
80	-3247
▁Bud	-3248
▁Bob	-3249
▁180	-3250
▁Death	-3251
▁meet	-3252
▁syn	-3253
▁away	-3254
▁placed	-3255
▁bank	-3256
▁remained	-3257
▁Jul	-3258
da	-3259
vironment	-3260
ertain	-3261
▁Lee	-3262
rel	-3263
▁Fort	-3264
▁Gal	-3265
▁collection	-3266
▁subsequ	-3267
urt	-3268
▁manager	-3269
▁Creek	-3270
▁squad	-3271
▁Coast	-3272
▁personnel	-3273
▁Ham	-3274
rig	-3275
mercial	-3276
▁centre	-3277
self	-3278
▁Ak	-3279
▁chart	-3280
yan	-3281
atform	-3282
▁While	-3283
oms	-3284
ves	-3285
▁Korean	-3286
uns	-3287
▁1930	-3288
▁media	-3289
▁1987	-3290
▁defeated	-3291
BA	-3292
uv	-3293
ila	-3294
▁Bir	-3295
▁above	-3296
▁appearances	-3297
▁Civil	-3298
▁control	-3299
▁Rural	-3300
▁Mot	-3301
ifican	-3302
tario	-3303
▁good	-3304
lam	-3305
▁added	-3306
▁youth	-3307
▁Ver	-3308
▁Most	-3309
▁leading	-3310
▁box	-3311
▁bronze	-3312
▁Lo	-3313
▁Some	-3314
▁Director	-3315
inent	-3316
▁Representatives	-3317
iation	-3318
lear	-3319
▁operated	-3320
▁awards	-3321
gl	-3322
▁information	-3323
▁arr	-3324
▁2:	-3325
▁1986	-3326
▁Governor	-3327
án	-3328
▁communities	-3329
▁(194	-3330
▁2021,	-3331
▁2017,	-3332
igital	-3333
▁5,	-3334
inem	-3335
▁cover	-3336
▁Tra	-3337
▁Far	-3338
▁40	-3339
▁Ontario	-3340
▁Head	-3341
str	-3342
▁manufact	-3343
▁followed	-3344
▁2020,	-3345
ulpt	-3346
elling	-3347
ees	-3348
▁Buildings	-3349
ider	-3350
▁Sand	-3351
▁belong	-3352
pan	-3353
▁2016,	-3354
ror	-3355
▁inf	-3356
▁Int	-3357
▁museum	-3358
▁need	-3359
▁Force	-3360
▁sec	-3361
mi	-3362
▁type	-3363
▁spent	-3364
mers	-3365
▁#	-3366
▁Brazilian	-3367
porary	-3368
")	-3369
▁fire	-3370
▁scient	-3371
▁units	-3372
▁examp	-3373
▁Description	-3374
▁training	-3375
class	-3376
usband	-3377
riz	-3378
▁Niger	-3379
▁Sa	-3380
ighest	-3381
ways	-3382
inary	-3383
▁Tim	-3384
▁Senate	-3385
▁Adv	-3386
In	-3387
▁)	-3388
▁section	-3389
▁reached	-3390
▁via	-3391
▁size	-3392
▁Raj	-3393
▁commission	-3394
▁once	-3395
▁Ken	-3396
▁Pacific	-3397
▁Wal	-3398
oice	-3399
▁involved	-3400
eep	-3401
▁science	-3402
▁Bost	-3403
▁Div	-3404
▁months	-3405
orse	-3406
▁native	-3407
bour	-3408
iang	-3409
▁market	-3410
▁less	-3411
▁ord	-3412
▁gave	-3413
uan	-3414
eff	-3415
unction	-3416
▁Tre	-3417
▁parish	-3418
▁selected	-3419
▁council	-3420
ither	-3421
▁Sem	-3422
▁recent	-3423
ova	-3424
org	-3425
ques	-3426
▁officer	-3427
▁influ	-3428
cient	-3429
▁disestab	-3430
▁bur	-3431
▁partic	-3432
inet	-3433
▁Bh	-3434
▁himself	-3435
▁Footballers	-3436
▁western	-3437
▁campaign	-3438
▁179	-3439
▁view	-3440
▁Baron	-3441
▁Jan	-3442
▁Bol	-3443
▁rural	-3444
erst	-3445
stra	-3446
▁soft	-3447
▁screen	-3448
ao	-3449
▁Gallery	-3450
▁past	-3451
encies	-3452
oring	-3453
lim	-3454
rants	-3455
▁cou	-3456
▁case	-3457
▁court	-3458
▁introduced	-3459
▁cond	-3460
▁taken	-3461
▁Water	-3462
evelopment	-3463
▁1985	-3464
▁2011,	-3465
yer	-3466
▁earned	-3467
▁Ram	-3468
incorporated	-3469
▁3.	-3470
▁compil	-3471
▁Pres	-3472
▁fig	-3473
70	-3474
▁regional	-3475
agon	-3476
24	-3477
ingu	-3478
▁discov	-3479
▁model	-3480
par	-3481
▁Writ	-3482
▁regular	-3483
face	-3484
read	-3485
▁2010,	-3486
▁Jack	-3487
▁swim	-3488
▁find	-3489
▁ge	-3490
▁collect	-3491
rial	-3492
▁vict	-3493
▁Wild	-3494
▁lived	-3495
ias	-3496
▁chief	-3497
ii	-3498
▁suff	-3499
▁fir	-3500
inct	-3501
▁Stat	-3502
▁significan	-3503
▁Tem	-3504
▁reported	-3505
▁Missouri	-3506
osoph	-3507
▁Form	-3508
▁Under	-3509
▁Boston	-3510
▁Jac	-3511
▁launched	-3512
▁broadcast	-3513
▁1983	-3514
oke	-3515
▁er	-3516
ector	-3517
usc	-3518
▁mountain	-3519
▁Cop	-3520
▁health	-3521
arden	-3522
▁Post	-3523
▁coast	-3524
▁Manag	-3525
▁Queen	-3526
▁2022,	-3527
▁2015,	-3528
▁Eastern	-3529
▁1972	-3530
utt	-3531
▁sea	-3532
▁Follow	-3533
▁Queens	-3534
▁wind	-3535
now	-3536
▁Korea	-3537
11	-3538
▁Journal	-3539
▁organization	-3540
amous	-3541
▁study	-3542
▁Sources	-3543
▁primary	-3544
▁Organ	-3545
ologist	-3546
▁Britain	-3547
▁dev	-3548
aught	-3549
▁midfield	-3550
▁husband	-3551
▁Business	-3552
▁Mid	-3553
sen	-3554
raf	-3555
ión	-3556
▁stri	-3557
▁although	-3558
▁Centre	-3559
▁cur	-3560
▁tre	-3561
▁caus	-3562
▁1982	-3563
war	-3564
▁Works	-3565
ective	-3566
▁natural	-3567
▁Rel	-3568
▁Color	-3569
▁educated	-3570
▁Sweden	-3571
▁1976	-3572
▁inj	-3573
▁page	-3574
NA	-3575
phy	-3576
▁reb	-3577
sych	-3578
▁Jean	-3579
reme	-3580
▁table	-3581
igious	-3582
▁2012,	-3583
▁i	-3584
▁Nether	-3585
ype	-3586
anded	-3587
▁studies	-3588
▁1940	-3589
▁Library	-3590
▁Bern	-3591
lav	-3592
no	-3593
▁Bibliography	-3594
▁Norway	-3595
▁leader	-3596
▁Anton	-3597
▁assistant	-3598
▁Turkey	-3599
▁2014,	-3600
▁Theatre	-3601
based	-3602
▁2013,	-3603
uated	-3604
▁musicians	-3605
▁Junior	-3606
▁consists	-3607
▁("	-3608
▁eastern	-3609
▁Charl	-3610
▁phil	-3611
▁sport	-3612
elled	-3613
▁human	-3614
▁front	-3615
▁wide	-3616
▁Wind	-3617
uments	-3618
▁Winn	-3619
▁text	-3620
▁Wel	-3621
▁capt	-3622
.)	-3623
ancer	-3624
▁winners	-3625
▁Sat	-3626
▁Stan	-3627
▁III	-3628
▁attem	-3629
emetery	-3630
▁Girl	-3631
▁Econom	-3632
urity	-3633
▁tracks	-3634
▁independent	-3635
ript	-3636
iate	-3637
▁Prim	-3638
▁Mu	-3639
▁htt	-3640
bon	-3641
▁parts	-3642
▁Mexican	-3643
ails	-3644
▁Health	-3645
achel	-3646
ão	-3647
▁Bet	-3648
▁promoted	-3649
▁does	-3650
▁Corn	-3651
▁Times	-3652
▁Chile	-3653
sel	-3654
ez	-3655
▁Syd	-3656
▁Lim	-3657
▁close	-3658
▁Pakistan	-3659
▁Indiana	-3660
▁highest	-3661
anth	-3662
▁Francisco	-3663
ises	-3664
▁see	-3665
ometimes	-3666
▁attack	-3667
▁mean	-3668
▁achiev	-3669
▁throughout	-3670
▁districts	-3671
ients	-3672
▁Bad	-3673
▁Bow	-3674
▁structure	-3675
▁Lord	-3676
uer	-3677
▁changed	-3678
▁Later	-3679
yo	-3680
hester	-3681
illa	-3682
ourne	-3683
aceae	-3684
18	-3685
▁entire	-3686
▁summer	-3687
▁older	-3688
pted	-3689
bass	-3690
▁Following	-3691
▁Indones	-3692
CAA	-3693
unn	-3694
▁10,	-3695
eleb	-3696
adel	-3697
▁Middle	-3698
onto	-3699
▁Matt	-3700
▁Netherlands	-3701
▁viol	-3702
bec	-3703
aters	-3704
▁clos	-3705
tic	-3706
▁tro	-3707
avy	-3708
▁Development	-3709
ensis	-3710
▁Danish	-3711
▁dam	-3712
uture	-3713
▁metres	-3714
regon	-3715
▁Const	-3716
▁coaches	-3717
▁never	-3718
▁McC	-3719
▁managers	-3720
▁origin	-3721
ades	-3722
omer	-3723
SA	-3724
erland	-3725
▁Book	-3726
▁1979	-3727
▁income	-3728
gypt	-3729
12	-3730
▁earl	-3731
▁architecture	-3732
▁2009,	-3733
li	-3734
▁cop	-3735
15	-3736
▁Les	-3737
▁Berlin	-3738
arg	-3739
▁pur	-3740
uten	-3741
▁God	-3742
▁Blue	-3743
▁Marc	-3744
▁Time	-3745
▁Sri	-3746
▁wid	-3747
▁below	-3748
▁historic	-3749
mann	-3750
ened	-3751
▁purch	-3752
▁Jones	-3753
▁Little	-3754
▁Step	-3755
▁ap	-3756
▁Jewish	-3757
▁killed	-3758
▁cricketers	-3759
apers	-3760
▁Ell	-3761
▁Cambridge	-3762
▁Prot	-3763
▁genera	-3764
▁1981	-3765
abeth	-3766
▁entered	-3767
▁EP	-3768
▁actresses	-3769
▁episode	-3770
enced	-3771
▁Oregon	-3772
▁Iv	-3773
bles	-3774
▁News	-3775
▁Moths	-3776
▁schol	-3777
▁Hospital	-3778
▁Iowa	-3779
ih	-3780
▁cost	-3781
rie	-3782
▁countries	-3783
▁merg	-3784
▁platform	-3785
▁master	-3786
▁feature	-3787
▁Van	-3788
▁Prince	-3789
▁candidate	-3790
oz	-3791
▁Su	-3792
▁1968	-3793
ray	-3794
▁6,	-3795
▁spe	-3796
ularly	-3797
▁Flora	-3798
▁eventually	-3799
enty	-3800
hol	-3801
nes	-3802
▁statistics	-3803
▁industry	-3804
▁ships	-3805
▁Ant	-3806
omes	-3807
umber	-3808
ucky	-3809
▁far	-3810
▁route	-3811
▁Ba	-3812
▁System	-3813
yric	-3814
writer	-3815
▁Williams	-3816
▁2008,	-3817
▁Band	-3818
▁Battle	-3819
▁drums	-3820
▁lic	-3821
FC	-3822
,"	-3823
western	-3824
lements	-3825
▁Harv	-3826
▁cat	-3827
▁Ash	-3828
▁though	-3829
▁Prize	-3830
▁label	-3831
▁plan	-3832
▁Good	-3833
▁Sydney	-3834
▁Finn	-3835
▁Nations	-3836
▁Tenn	-3837
▁respons	-3838
wealth	-3839
▁location	-3840
▁Broad	-3841
▁Political	-3842
onym	-3843
▁arran	-3844
▁nar	-3845
▁exist	-3846
▁construct	-3847
▁Mur	-3848
▁Egypt	-3849
▁65	-3850
▁composed	-3851
house	-3852
▁Child	-3853
▁minor	-3854
▁Ray	-3855
▁annual	-3856
▁von	-3857
▁Sport	-3858
ba	-3859
–199	-3860
umn	-3861
mad	-3862
▁strong	-3863
▁bishop	-3864
▁Field	-3865
▁Pen	-3866
▁Alexander	-3867
urches	-3868
26	-3869
▁culture	-3870
▁electric	-3871
jan	-3872
ée	-3873
ube	-3874
▁Singles	-3875
▁Legislative	-3876
pur	-3877
ymn	-3878
last	-3879
▁Taxa	-3880
▁Ke	-3881
▁aud	-3882
▁occup	-3883
▁whose	-3884
▁Kansas	-3885
▁Tok	-3886
▁sculpt	-3887
▁Mountain	-3888
▁accom	-3889
▁network	-3890
▁Mountains	-3891
▁date	-3892
▁1978	-3893
▁Commonwealth	-3894
▁Corpor	-3895
▁fe	-3896
pite	-3897
▁Week	-3898
▁Santa	-3899
▁Gra	-3900
▁sug	-3901
▁1974	-3902
ends	-3903
enger	-3904
ID	-3905
▁champion	-3906
▁Card	-3907
▁participated	-3908
▁articles	-3909
▁Foundation	-3910
▁Bab	-3911
▁defeat	-3912
▁usually	-3913
▁least	-3914
▁Kal	-3915
▁Sab	-3916
▁Albums	-3917
▁rights	-3918
▁ser	-3919
▁1977	-3920
▁Colorado	-3921
▁girl	-3922
itage	-3923
▁Inf	-3924
istic	-3925
bourne	-3926
▁females	-3927
▁writing	-3928
▁Liga	-3929
rup	-3930
▁Det	-3931
▁base	-3932
▁tennis	-3933
27	-3934
▁interest	-3935
▁loss	-3936
▁hous	-3937
▁appearance	-3938
▁Technology	-3939
arily	-3940
▁cycl	-3941
▁median	-3942
oto	-3943
▁Malays	-3944
▁surround	-3945
sky	-3946
▁Som	-3947
▁Books	-3948
isions	-3949
va	-3950
▁competitions	-3951
▁shot	-3952
14	-3953
ential	-3954
aria	-3955
▁winner	-3956
▁data	-3957
▁Andrew	-3958
Th	-3959
▁CO	-3960
▁2010.	-3961
▁Est	-3962
▁decided	-3963
▁NCAA	-3964
▁Member	-3965
ek	-3966
▁1964	-3967
iety	-3968
▁Toronto	-3969
▁2007,	-3970
ills	-3971
▁hit	-3972
▁Eliz	-3973
▁Way	-3974
▁unc	-3975
iginal	-3976
▁Daniel	-3977
▁sister	-3978
29	-3979
5%	-3980
▁recording	-3981
ava	-3982
vert	-3983
▁7,	-3984
▁cred	-3985
▁1975	-3986
▁Latin	-3987
...	-3988
▁Rivers	-3989
▁faculty	-3990
▁Census	-3991
ji	-3992
▁Dis	-3993
▁Sea	-3994
▁succeed	-3995
▁Former	-3996
▁Ul	-3997
AA	-3998
ackson	-3999
▁test	-4000
28	-4001
▁fed	-4002
▁Fer	-4003
raine	-4004
align	-4005
▁sat	-4006
bot	-4007
ancial	-4008
emorial	-4009
▁whom	-4010
▁Airport	-4011
anced	-4012
▁collabor	-4013
▁Sund	-4014
ieuten	-4015
iple	-4016
▁becoming	-4017
ken	-4018
▁newspaper	-4019
▁Dar	-4020
oid	-4021
▁Rod	-4022
▁Family	-4023
▁Croat	-4024
oper	-4025
▁brand	-4026
dy	-4027
roy	-4028
▁Coll	-4029
▁Athletics	-4030
ais	-4031
▁Four	-4032
▁meas	-4033
omot	-4034
▁Medalists	-4035
▁Ho	-4036
▁houses	-4037
▁Ven	-4038
▁example	-4039
▁woman	-4040
▁Basketball	-4041
▁improv	-4042
▁Hamp	-4043
▁running	-4044
▁novels	-4045
▁mass	-4046
▁upon	-4047
essee	-4048
▁ended	-4049
anks	-4050
LA	-4051
▁Country	-4052
▁records	-4053
▁Ministry	-4054
olitan	-4055
▁races	-4056
▁Max	-4057
win	-4058
▁Sciences	-4059
▁Mir	-4060
▁Round	-4061
▁organizations	-4062
▁hot	-4063
acters	-4064
▁Der	-4065
alc	-4066
▁1973	-4067
▁Ut	-4068
▁constituency	-4069
emporary	-4070
▁Enter	-4071
wick	-4072
▁Mun	-4073
▁Ta	-4074
ulf	-4075
▁Bulgar	-4076
▁br	-4077
▁seen	-4078
▁overall	-4079
▁Hind	-4080
inger	-4081
▁Histor	-4082
▁historical	-4083
▁uses	-4084
▁Ah	-4085
cher	-4086
▁related	-4087
▁action	-4088
atics	-4089
enz	-4090
▁transport	-4091
▁Rail	-4092
▁Jackson	-4093
agh	-4094
allen	-4095
▁Season	-4096
▁middle	-4097
asy	-4098
ritory	-4099
▁Forest	-4100
▁categ	-4101
▁acquired	-4102
▁space	-4103
▁management	-4104
▁habit	-4105
▁Tai	-4106
▁Ark	-4107
▁deal	-4108
▁Although	-4109
Ar	-4110
▁reach	-4111
▁Tennessee	-4112
▁critic	-4113
▁Work	-4114
▁1971	-4115
▁property	-4116
cean	-4117
▁mer	-4118
edia	-4119
incial	-4120
▁renamed	-4121
nam	-4122
▁Professional	-4123
▁Federal	-4124
▁Jr	-4125
▁Special	-4126
▁Office	-4127
▁score	-4128
▁towns	-4129
▁lower	-4130
ips	-4131
–20	-4132
▁how	-4133
icians	-4134
▁significant	-4135
▁Turkish	-4136
16	-4137
▁Id	-4138
▁insp	-4139
kins	-4140
bre	-4141
illy	-4142
▁Mov	-4143
▁supp	-4144
▁situated	-4145
▁Kentucky	-4146
▁8,	-4147
▁Highway	-4148
▁18,	-4149
▁(3	-4150
▁famous	-4151
ów	-4152
▁practice	-4153
ione	-4154
▁should	-4155
▁provided	-4156
▁soccer	-4157
▁complex	-4158
▁medical	-4159
lers	-4160
90	-4161
▁bridge	-4162
▁Federation	-4163
▁ant	-4164
span	-4165
▁either	-4166
13	-4167
▁Aut	-4168
▁2006,	-4169
▁police	-4170
▁ded	-4171
▁Background	-4172
urban	-4173
▁Vi	-4174
▁Jon	-4175
▁Johnson	-4176
inson	-4177
▁Swiss	-4178
▁Maryland	-4179
▁Cricket	-4180
usp	-4181
lit	-4182
▁settlement	-4183
icine	-4184
▁legisl	-4185
▁township	-4186
):	-4187
▁BC	-4188
ropod	-4189
unc	-4190
thur	-4191
hew	-4192
with	-4193
osh	-4194
▁noted	-4195
anga	-4196
17	-4197
ieutenant	-4198
ote	-4199
▁travel	-4200
▁Att	-4201
▁diff	-4202
▁commercial	-4203
▁Their	-4204
▁Rad	-4205
▁trib	-4206
mir	-4207
▁fish	-4208
▁pred	-4209
riage	-4210
▁engineer	-4211
▁mm	-4212
▁Municipality	-4213
▁1969	-4214
iber	-4215
▁Design	-4216
▁sometimes	-4217
▁Voiv	-4218
TA	-4219
▁Aff	-4220
rizona	-4221
▁stars	-4222
▁traditional	-4223
▁nine	-4224
▁subsequently	-4225
▁Home	-4226
eption	-4227
▁attract	-4228
▁commune	-4229
ension	-4230
alymp	-4231
▁1919	-4232
▁Publ	-4233
osa	-4234
▁press	-4235
▁executive	-4236
▁Honours	-4237
lem	-4238
▁1967	-4239
ked	-4240
like	-4241
▁Cas	-4242
▁Rog	-4243
odeship	-4244
▁Hand	-4245
▁villages	-4246
erem	-4247
▁celeb	-4248
▁tax	-4249
▁Ott	-4250
▁unit	-4251
▁fr	-4252
▁you	-4253
▁Hockey	-4254
omm	-4255
▁anal	-4256
▁university	-4257
▁Personnel	-4258
▁instr	-4259
phia	-4260
▁raised	-4261
▁news	-4262
▁Media	-4263
▁Ret	-4264
▁princip	-4265
rainian	-4266
ker	-4267
pec	-4268
▁Master	-4269
▁Arizona	-4270
▁Voivodeship	-4271
▁chem	-4272
▁bound	-4273
▁Lank	-4274
aily	-4275
▁student	-4276
▁Kenn	-4277
▁Bos	-4278
hedule	-4279
▁van	-4280
achelor	-4281
▁BBC	-4282
alled	-4283
rown	-4284
outheast	-4285
▁Bell	-4286
▁Elizabeth	-4287
rought	-4288
ycle	-4289
▁border	-4290
▁Queensland	-4291
▁Paralymp	-4292
lying	-4293
hens	-4294
isation	-4295
inae	-4296
▁mainly	-4297
▁individual	-4298
▁believ	-4299
45	-4300
rin	-4301
-3	-4302
▁journ	-4303
▁opening	-4304
hess	-4305
▁Ra	-4306
▁Argentine	-4307
▁Plot	-4308
▁beginning	-4309
▁Kir	-4310
▁Barb	-4311
▁Down	-4312
▁Joe	-4313
ears	-4314
▁Sound	-4315
anning	-4316
▁peak	-4317
▁numerous	-4318
▁documentary	-4319
rance	-4320
adelphia	-4321
▁fifth	-4322
▁focus	-4323
teen	-4324
abad	-4325
▁unknown	-4326
change	-4327
▁Community	-4328
▁prison	-4329
▁saw	-4330
▁hard	-4331
▁dom	-4332
▁Austrian	-4333
ladesh	-4334
▁Tod	-4335
▁Secretary	-4336
▁course	-4337
itation	-4338
▁USA	-4339
▁mostly	-4340
yt	-4341
▁states	-4342
▁Colomb	-4343
▁2011.	-4344
finals	-4345
anguages	-4346
▁parties	-4347
▁Inv	-4348
▁nearby	-4349
▁associated	-4350
▁means	-4351
▁Wall	-4352
ía	-4353
▁ball	-4354
▁fav	-4355
aped	-4356
asing	-4357
ropolitan	-4358
aga	-4359
lete	-4360
oh	-4361
▁serves	-4362
▁Cub	-4363
▁Rome	-4364
▁Tay	-4365
▁dens	-4366
▁Maria	-4367
iance	-4368
▁Chap	-4369
died	-4370
▁status	-4371
▁Of	-4372
▁transferred	-4373
▁Francis	-4374
▁Connect	-4375
▁Corporation	-4376
▁complet	-4377
▁Lar	-4378
▁Compet	-4379
iant	-4380
fecture	-4381
town	-4382
▁Reception	-4383
▁painter	-4384
▁king	-4385
arters	-4386
▁hosted	-4387
ika	-4388
aki	-4389
IS	-4390
▁piano	-4391
▁Hu	-4392
▁Stock	-4393
▁learn	-4394
▁178	-4395
ür	-4396
▁2009.	-4397
▁pot	-4398
▁Medical	-4399
▁composer	-4400
▁(190	-4401
▁Ship	-4402
▁15,	-4403
▁Islam	-4404
stein	-4405
urer	-4406
CC	-4407
▁Stadium	-4408
▁Indust	-4409
▁Bangladesh	-4410
▁whe	-4411
▁Joh	-4412
▁rail	-4413
▁Production	-4414
▁Dam	-4415
▁honor	-4416
▁covered	-4417
▁che	-4418
BS	-4419
▁observ	-4420
▁Three	-4421
▁starring	-4422
▁1900	-4423
▁agre	-4424
anned	-4425
▁Lew	-4426
▁Fish	-4427
stitution	-4428
ibb	-4429
▁mathem	-4430
▁trade	-4431
▁Philadelphia	-4432
▁Ukrainian	-4433
▁nort	-4434
▁Administr	-4435
▁Jeff	-4436
▁Kim	-4437
▁Professor	-4438
▁singers	-4439
RA	-4440
▁1966	-4441
1%	-4442
cow	-4443
▁2018.	-4444
▁ide	-4445
▁additional	-4446
▁2017.	-4447
▁24,	-4448
▁quarter	-4449
▁Austria	-4450
icks	-4451
3%	-4452
worth	-4453
▁parliament	-4454
▁behind	-4455
▁MPs	-4456
ello	-4457
▁Argentina	-4458
▁speed	-4459
▁1965	-4460
abb	-4461
▁operations	-4462
ateur	-4463
▁Cur	-4464
obal	-4465
ga	-4466
▁fight	-4467
heim	-4468
▁Alumni	-4469
▁outside	-4470
▁Anth	-4471
▁characters	-4472
▁taking	-4473
▁movement	-4474
net	-4475
clus	-4476
▁Night	-4477
▁Quebec	-4478
▁format	-4479
▁2012.	-4480
ori	-4481
▁Cape	-4482
weight	-4483
gu	-4484
itzerland	-4485
▁moth	-4486
onst	-4487
▁dark	-4488
▁food	-4489
▁Tel	-4490
itiz	-4491
hu	-4492
▁almost	-4493
▁Lady	-4494
ols	-4495
pts	-4496
▁Show	-4497
▁los	-4498
▁mission	-4499
▁profile	-4500
inity	-4501
▁lyric	-4502
▁bus	-4503
ability	-4504
▁plants	-4505
▁Light	-4506
ties	-4507
▁Crit	-4508
Al	-4509
▁Ever	-4510
▁Video	-4511
▁according	-4512
▁Program	-4513
ocese	-4514
▁Cre	-4515
amm	-4516
found	-4517
▁Viet	-4518
–17	-4519
aks	-4520
▁must	-4521
▁night	-4522
lah	-4523
echan	-4524
aug	-4525
▁veh	-4526
keep	-4527
▁Nev	-4528
▁change	-4529
amin	-4530
▁leaves	-4531
▁treat	-4532
ental	-4533
▁initially	-4534
▁Brad	-4535
met	-4536
▁Golden	-4537
leyball	-4538
icut	-4539
▁Stand	-4540
ician	-4541
je	-4542
▁9,	-4543
▁teacher	-4544
▁Senior	-4545
▁Alf	-4546
▁put	-4547
▁Beng	-4548
▁2008.	-4549
▁Game	-4550
▁2015.	-4551
oud	-4552
enez	-4553
ami	-4554
olis	-4555
▁Melbourne	-4556
▁Record	-4557
▁Hy	-4558
▁2013.	-4559
▁frequ	-4560
▁racing	-4561
▁2016.	-4562
ingham	-4563
eman	-4564
▁Review	-4565
▁Od	-4566
▁pi	-4567
▁Nic	-4568
amber	-4569
▁Duke	-4570
akers	-4571
▁formerly	-4572
▁Arm	-4573
▁activities	-4574
▁Kr	-4575
▁Castle	-4576
ydro	-4577
8%	-4578
pped	-4579
▁12,	-4580
▁solo	-4581
2%	-4582
▁Finnish	-4583
▁Philippines	-4584
–9	-4585
▁photograph	-4586
anian	-4587
▁Sus	-4588
▁Pers	-4589
uals	-4590
▁Real	-4591
astropod	-4592
ho	-4593
▁proble	-4594
▁Sum	-4595
▁Belgian	-4596
▁Brook	-4597
▁featuring	-4598
▁Live	-4599
▁Species	-4600
▁Moscow	-4601
▁1962	-4602
HL	-4603
enna	-4604
het	-4605
chestra	-4606
▁lake	-4607
▁1956	-4608
▁45	-4609
▁neighbor	-4610
▁Mike	-4611
▁CE	-4612
▁systems	-4613
"|	-4614
▁hospital	-4615
▁Eth	-4616
ugal	-4617
▁That	-4618
▁Pier	-4619
igrants	-4620
▁Ukraine	-4621
▁presented	-4622
4%	-4623
▁respect	-4624
▁institut	-4625
▁Ly	-4626
ares	-4627
▁Alab	-4628
▁2014.	-4629
▁movie	-4630
▁Rem	-4631
ré	-4632
ighth	-4633
▁fa	-4634
▁Harris	-4635
▁anti	-4636
▁Academic	-4637
▁60	-4638
▁notable	-4639
▁Add	-4640
elt	-4641
▁Switzerland	-4642
-0	-4643
ublin	-4644
▁Qual	-4645
▁4.	-4646
aven	-4647
anta	-4648
▁Supreme	-4649
▁Hay	-4650
▁loan	-4651
▁2007.	-4652
▁2019.	-4653
▁11,	-4654
uguese	-4655
▁Str	-4656
ulation	-4657
▁constructed	-4658
▁Youth	-4659
▁Ca	-4660
▁177	-4661
▁starting	-4662
▁charts	-4663
▁1948	-4664
▁Ren	-4665
▁get	-4666
▁Greece	-4667
ellows	-4668
▁2005,	-4669
▁emb	-4670
▁Freder	-4671
▁journalist	-4672
▁able	-4673
▁episodes	-4674
rief	-4675
▁den	-4676
▁Spring	-4677
▁wrest	-4678
▁don	-4679
▁prior	-4680
▁Demograph	-4681
▁1952	-4682
ropical	-4683
▁multiple	-4684
▁2021.	-4685
▁Fac	-4686
–3	-4687
▁Beach	-4688
▁victory	-4689
▁Kaz	-4690
▁Area	-4691
▁provide	-4692
alo	-4693
6%	-4694
▁wing	-4695
▁Engineering	-4696
▁locality	-4697
▁alongside	-4698
▁headqu	-4699
▁Curr	-4700
▁suggest	-4701
inus	-4702
▁meaning	-4703
▁programming	-4704
▁Cemetery	-4705
▁programs	-4706
▁indic	-4707
▁Sav	-4708
▁painters	-4709
▁Communes	-4710
▁Lind	-4711
▁love	-4712
▁consist	-4713
7%	-4714
atus	-4715
▁Alabama	-4716
▁Fair	-4717
▁software	-4718
arp	-4719
▁polic	-4720
▁titles	-4721
▁Oblast	-4722
▁20,	-4723
▁Connecticut	-4724
▁towards	-4725
▁ven	-4726
▁occas	-4727
east	-4728
▁parents	-4729
▁instead	-4730
zy	-4731
▁Regional	-4732
▁issues	-4733
azines	-4734
▁lines	-4735
ogue	-4736
▁Hungarian	-4737
▁Arthur	-4738
▁Bridge	-4739
▁Prad	-4740
▁big	-4741
▁altern	-4742
-2	-4743
▁1963	-4744
▁lives	-4745
▁academic	-4746
▁method	-4747
9%	-4748
▁minister	-4749
een	-4750
mas	-4751
▁Ku	-4752
book	-4753
stan	-4754
range	-4755
lyn	-4756
▁forces	-4757
itude	-4758
▁firm	-4759
▁mention	-4760
▁prob	-4761
▁Gi	-4762
imum	-4763
▁adj	-4764
▁Avenue	-4765
▁Liter	-4766
lar	-4767
▁Earl	-4768
▁Billboard	-4769
▁corn	-4770
▁rad	-4771
▁2023,	-4772
▁males	-4773
onic	-4774
▁remains	-4775
▁Fa	-4776
resh	-4777
▁Chris	-4778
▁Sec	-4779
▁brought	-4780
▁founder	-4781
aval	-4782
▁pen	-4783
www	-4784
▁stated	-4785
▁prote	-4786
▁Taiwan	-4787
▁Tal	-4788
▁standard	-4789
▁champions	-4790
iplom	-4791
apore	-4792
ss	-4793
loy	-4794
ego	-4795
cy	-4796
enders	-4797
▁stories	-4798
▁Ball	-4799
▁yellow	-4800
▁itself	-4801
▁Walk	-4802
▁pil	-4803
▁Chair	-4804
▁Nag	-4805
▁Demographics	-4806
▁nominated	-4807
▁buried	-4808
▁chairman	-4809
▁Nep	-4810
▁brown	-4811
▁lay	-4812
An	-4813
real	-4814
rog	-4815
▁Ast	-4816
▁technology	-4817
ners	-4818
▁Circ	-4819
▁colon	-4820
▁serve	-4821
▁Justice	-4822
▁variety	-4823
oln	-4824
idi	-4825
icket	-4826
iders	-4827
ois	-4828
▁Finland	-4829
▁Prime	-4830
▁Mas	-4831
▁federal	-4832
▁Pit	-4833
▁channel	-4834
▁Atlantic	-4835
▁Clark	-4836
irt	-4837
▁classical	-4838
▁personal	-4839
ipients	-4840
▁roles	-4841
▁Steve	-4842
▁grew	-4843
▁Pass	-4844
▁express	-4845
pecially	-4846
▁1945	-4847
lahoma	-4848
bl	-4849
mina	-4850
oved	-4851
▁Portuguese	-4852
▁rac	-4853
▁officers	-4854
▁Players	-4855
anz	-4856
oni	-4857
▁illust	-4858
▁Soccer	-4859
ugg	-4860
ouch	-4861
irement	-4862
▁govern	-4863
ogs	-4864
▁2000,	-4865
▁(16	-4866
▁engineering	-4867
▁1961	-4868
–198	-4869
▁Tamil	-4870
▁Prix	-4871
▁miles	-4872
▁surface	-4873
▁dedicated	-4874
▁ancient	-4875
▁+	-4876
▁Ot	-4877
▁Wilson	-4878
▁determ	-4879
▁self	-4880
▁majority	-4881
▁interview	-4882
▁exc	-4883
obile	-4884
▁Liberal	-4885
▁branch	-4886
▁here	-4887
55	-4888
▁Dak	-4889
▁Mississ	-4890
▁Arkansas	-4891
▁rap	-4892
▁5:	-4893
▁hum	-4894
▁14,	-4895
eld	-4896
▁Dor	-4897
ronic	-4898
▁Prefecture	-4899
SS	-4900
▁Oklahoma	-4901
elle	-4902
▁Fore	-4903
▁seats	-4904
▁Pun	-4905
▁density	-4906
▁Denmark	-4907
▁Eston	-4908
ippi	-4909
▁online	-4910
▁fellow	-4911
▁votes	-4912
onomy	-4913
mouth	-4914
▁Portugal	-4915
▁minutes	-4916
▁soon	-4917
▁Belgium	-4918
▁money	-4919
▁investig	-4920
▁double	-4921
▁green	-4922
▁Champions	-4923
▁Ins	-4924
▁athletes	-4925
▁maint	-4926
ét	-4927
▁musician	-4928
▁Batt	-4929
▁helped	-4930
AC	-4931
▁pers	-4932
▁little	-4933
▁discovered	-4934
anna	-4935
ishes	-4936
athan	-4937
▁Marsh	-4938
▁Power	-4939
eeks	-4940
▁Hans	-4941
▁super	-4942
▁affili	-4943
tra	-4944
▁16,	-4945
▁Human	-4946
▁(189	-4947
wide	-4948
▁1958	-4949
asts	-4950
▁x	-4951
▁Wars	-4952
ysis	-4953
▁Davis	-4954
stone	-4955
▁Ts	-4956
▁Bah	-4957
▁Short	-4958
▁Singapore	-4959
▁follows	-4960
water	-4961
▁É	-4962
▁complete	-4963
▁sex	-4964
▁stre	-4965
▁Phys	-4966
hedral	-4967
▁Lead	-4968
mitted	-4969
oster	-4970
▁earlier	-4971
thing	-4972
▁bill	-4973
▁Syr	-4974
–2	-4975
oli	-4976
▁inhabit	-4977
agu	-4978
▁purp	-4979
rim	-4980
▁Tokyo	-4981
▁fall	-4982
down	-4983
▁managed	-4984
-18	-4985
also	-4986
▁13,	-4987
kh	-4988
▁Stephen	-4989
▁estate	-4990
▁Ross	-4991
▁forest	-4992
▁chap	-4993
▁Taylor	-4994
▁word	-4995
▁philosoph	-4996
▁Manc	-4997
▁1959	-4998
ologists	-4999
isa	-5000
▁literature	-5001
▁row	-5002
▁Web	-5003
▁pay	-5004
▁shoot	-5005
▁2006.	-5006
▁mayor	-5007
uge	-5008
isk	-5009
resp	-5010
inated	-5011
▁imm	-5012
▁diss	-5013
▁environment	-5014
orney	-5015
▁fiction	-5016
▁directors	-5017
▁gran	-5018
▁Venez	-5019
▁fort	-5020
rice	-5021
▁Ocean	-5022
–6	-5023
MS	-5024
alle	-5025
▁restaur	-5026
lan	-5027
▁2004,	-5028
▁rather	-5029
▁theatre	-5030
▁(),	-5031
ped	-5032
▁Foreign	-5033
antry	-5034
▁Rom	-5035
▁Abd	-5036
▁especially	-5037
▁Cab	-5038
▁Both	-5039
▁Lt	-5040
▁35	-5041
▁17,	-5042
35	-5043
▁commonly	-5044
▁forms	-5045
ito	-5046
▁ski	-5047
▁Distribution	-5048
ski	-5049
▁higher	-5050
▁30,	-5051
nic	-5052
▁1957	-5053
▁Greg	-5054
acity	-5055
▁Cost	-5056
enture	-5057
eller	-5058
ussion	-5059
asters	-5060
▁sym	-5061
▁Nar	-5062
▁Ira	-5063
▁Network	-5064
▁provides	-5065
▁Khan	-5066
▁representing	-5067
▁kil	-5068
▁Pap	-5069
▁dyn	-5070
▁Chart	-5071
des	-5072
▁Natural	-5073
▁Domin	-5074
▁susp	-5075
rob	-5076
▁Gab	-5077
48	-5078
▁1936	-5079
▁Serbian	-5080
▁computer	-5081
fit	-5082
▁Leon	-5083
▁prominent	-5084
▁Free	-5085
hist	-5086
uf	-5087
▁Armen	-5088
▁Revolution	-5089
▁lik	-5090
▁Jes	-5091
▁Divis	-5092
▁owner	-5093
▁Welsh	-5094
allenge	-5095
▁square	-5096
sex	-5097
▁Lev	-5098
▁2020.	-5099
▁vote	-5100
ession	-5101
47	-5102
▁Ky	-5103
▁Kel	-5104
▁Police	-5105
▁Nik	-5106
▁metal	-5107
▁primarily	-5108
▁army	-5109
ocks	-5110
–8	-5111
▁covers	-5112
▁Studies	-5113
▁succeeded	-5114
Le	-5115
▁pop	-5116
▁generally	-5117
▁purchased	-5118
▁taught	-5119
▁takes	-5120
uerto	-5121
oslav	-5122
▁Indonesia	-5123
▁2022.	-5124
▁motor	-5125
▁premier	-5126
▁divided	-5127
▁Defunct	-5128
▁got	-5129
▁acting	-5130
ections	-5131
▁terms	-5132
▁Mississippi	-5133
EC	-5134
▁referred	-5135
▁Harvard	-5136
▁command	-5137
▁contest	-5138
0%	-5139
▁jazz	-5140
▁Ice	-5141
▁Bru	-5142
▁material	-5143
lementary	-5144
▁Louisiana	-5145
ternet	-5146
▁extended	-5147
▁Cons	-5148
ayan	-5149
▁regard	-5150
▁Bon	-5151
▁5.	-5152
kin	-5153
▁inn	-5154
▁Colon	-5155
Un	-5156
▁Hur	-5157
▁hom	-5158
▁sail	-5159
ipe	-5160
▁Management	-5161
former	-5162
izing	-5163
atab	-5164
ds	-5165
▁Leb	-5166
orter	-5167
▁Hart	-5168
▁1955	-5169
▁rules	-5170
▁painting	-5171
▁future	-5172
erbai	-5173
▁disp	-5174
▁Dun	-5175
▁reason	-5176
▁finish	-5177
▁occur	-5178
▁ben	-5179
rill	-5180
▁officially	-5181
▁psych	-5182
MA	-5183
▁semi	-5184
▁languages	-5185
▁adop	-5186
ographic	-5187
▁Affairs	-5188
▁latter	-5189
▁Tar	-5190
oking	-5191
▁forward	-5192
▁products	-5193
▁break	-5194
▁Il	-5195
▁25,	-5196
▁Kam	-5197
ancy	-5198
▁Han	-5199
▁Wat	-5200
▁Village	-5201
ecess	-5202
▁relationship	-5203
▁stone	-5204
zh	-5205
dam	-5206
▁Fire	-5207
▁Corps	-5208
▁cities	-5209
▁marine	-5210
▁leaving	-5211
▁article	-5212
▁Lin	-5213
▁Balt	-5214
ervation	-5215
▁Earth	-5216
▁Charts	-5217
▁resident	-5218
ín	-5219
▁Fil	-5220
▁Gil	-5221
▁legal	-5222
▁1910	-5223
▁Hor	-5224
▁Puerto	-5225
▁cab	-5226
▁supported	-5227
▁block	-5228
istry	-5229
agen	-5230
ounds	-5231
▁aged	-5232
▁institutions	-5233
▁UC	-5234
▁except	-5235
oa	-5236
▁jun	-5237
hr	-5238
yers	-5239
SC	-5240
▁color	-5241
lov	-5242
▁Memorial	-5243
ributed	-5244
greg	-5245
▁Pradesh	-5246
▁Project	-5247
▁upper	-5248
▁larger	-5249
▁Malaysia	-5250
rem	-5251
▁obt	-5252
▁Male	-5253
val	-5254
irit	-5255
▁voice	-5256
▁esc	-5257
▁Walter	-5258
▁Houses	-5259
▁dance	-5260
▁rom	-5261
▁cust	-5262
▁Labour	-5263
▁1946	-5264
▁gener	-5265
heastern	-5266
▁Schools	-5267
olished	-5268
▁compilation	-5269
▁SC	-5270
▁Us	-5271
election	-5272
▁Key	-5273
▁store	-5274
orship	-5275
▁religious	-5276
▁Venezuel	-5277
▁Hou	-5278
andon	-5279
▁1944	-5280
▁sites	-5281
▁housing	-5282
rec	-5283
▁Tun	-5284
▁Cy	-5285
▁today	-5286
▁(188	-5287
▁dise	-5288
▁Azerbai	-5289
istance	-5290
ctic	-5291
ixed	-5292
▁Ale	-5293
46	-5294
incoln	-5295
▁mixed	-5296
aine	-5297
▁Third	-5298
erald	-5299
▁1947	-5300
▁secondary	-5301
▁let	-5302
rast	-5303
▁stay	-5304
▁ens	-5305
▁Hard	-5306
▁Israeli	-5307
▁Ka	-5308
▁qualified	-5309
▁2005.	-5310
▁Test	-5311
▁1954	-5312
▁issue	-5313
▁19,	-5314
▁want	-5315
▁Ghana	-5316
▁Son	-5317
▁foot	-5318
iot	-5319
bro	-5320
▁Offic	-5321
▁Entertain	-5322
andy	-5323
▁battle	-5324
▁limited	-5325
▁Bird	-5326
33	-5327
▁Website	-5328
▁vs	-5329
▁Sud	-5330
58	-5331
▁Cer	-5332
light	-5333
▁Naz	-5334
▁specific	-5335
▁eth	-5336
▁tower	-5337
aux	-5338
▁Ten	-5339
▁weeks	-5340
osph	-5341
inema	-5342
▁Regiment	-5343
cel	-5344
iti	-5345
▁know	-5346
▁allowed	-5347
▁Jane	-5348
▁1951	-5349
vin	-5350
▁residents	-5351
pson	-5352
▁better	-5353
▁21,	-5354
▁Rang	-5355
▁Lewis	-5356
▁shown	-5357
▁endemic	-5358
▁street	-5359
asty	-5360
▁Abb	-5361
lease	-5362
▁remaining	-5363
▁destroy	-5364
ready	-5365
▁brief	-5366
▁financial	-5367
▁More	-5368
▁pan	-5369
▁inhabitants	-5370
▁web	-5371
▁Trust	-5372
▁pal	-5373
ibility	-5374
ureau	-5375
action	-5376
orph	-5377
nia	-5378
ims	-5379
▁Na	-5380
▁separate	-5381
▁Pict	-5382
inburgh	-5383
offs	-5384
▁Lor	-5385
–7	-5386
▁22,	-5387
▁1953	-5388
▁Fame	-5389
▁Romania	-5390
▁conference	-5391
▁create	-5392
▁backing	-5393
▁card	-5394
ounter	-5395
rying	-5396
leet	-5397
▁bow	-5398
▁Musical	-5399
▁abs	-5400
▁Dakota	-5401
▁1939	-5402
▁Gram	-5403
▁Before	-5404
▁Fern	-5405
▁judge	-5406
▁Dublin	-5407
edd	-5408
▁Inn	-5409
itled	-5410
▁capacity	-5411
▁account	-5412
vels	-5413
▁Syn	-5414
▁digital	-5415
add	-5416
▁deep	-5417
▁1928	-5418
▁Maine	-5419
▁Profile	-5420
ires	-5421
gers	-5422
▁Si	-5423
▁http	-5424
ening	-5425
▁Filmography	-5426
cha	-5427
▁Karl	-5428
▁passed	-5429
▁Many	-5430
rep	-5431
▁Guine	-5432
▁subject	-5433
▁responsible	-5434
▁1949	-5435
–197	-5436
▁1:	-5437
▁Wy	-5438
▁possible	-5439
▁concern	-5440
bers	-5441
0,000	-5442
▁source	-5443
bu	-5444
▁colle	-5445
▁Lincoln	-5446
▁Guard	-5447
▁sequ	-5448
▁Labor	-5449
▁Anne	-5450
more	-5451
▁Cour	-5452
▁captain	-5453
▁administration	-5454
rate	-5455
perial	-5456
▁care	-5457
▁code	-5458
▁23,	-5459
Sh	-5460
imated	-5461
44	-5462
aro	-5463
▁fore	-5464
▁Draw	-5465
▁28,	-5466
▁Original	-5467
▁Ali	-5468
▁politics	-5469
▁Squad	-5470
ashion	-5471
oration	-5472
tle	-5473
cest	-5474
▁disestablished	-5475
▁Ko	-5476
▁effect	-5477
▁Dur	-5478
ully	-5479
▁Berg	-5480
▁merged	-5481
▁sy	-5482
▁1942	-5483
mary	-5484
▁lawyer	-5485
▁scoring	-5486
▁Services	-5487
▁Express	-5488
59	-5489
▁Edinburgh	-5490
▁If	-5491
▁mach	-5492
▁oil	-5493
▁habitat	-5494
otes	-5495
▁Fellows	-5496
▁Harry	-5497
▁agric	-5498
SP	-5499
▁appears	-5500
▁say	-5501
rator	-5502
▁Staff	-5503
▁meeting	-5504
▁Manchester	-5505
▁Maur	-5506
agn	-5507
▁36	-5508
▁Nat	-5509
▁Point	-5510
hedul	-5511
ters	-5512
–16	-5513
▁distance	-5514
song	-5515
rik	-5516
▁move	-5517
can	-5518
▁moving	-5519
▁Like	-5520
▁Discography	-5521
▁£	-5522
ardo	-5523
opter	-5524
amilton	-5525
jo	-5526
▁operation	-5527
▁individuals	-5528
▁representative	-5529
▁Dal	-5530
enh	-5531
iring	-5532
▁come	-5533
▁tal	-5534
▁Temple	-5535
▁floor	-5536
rak	-5537
▁Ped	-5538
▁changes	-5539
▁José	-5540
▁arts	-5541
▁wins	-5542
▁administ	-5543
itting	-5544
▁Entertainment	-5545
adi	-5546
lean	-5547
anton	-5548
▁map	-5549
▁Mit	-5550
chen	-5551
rait	-5552
▁job	-5553
▁thus	-5554
▁tree	-5555
▁failed	-5556
49	-5557
elli	-5558
▁neg	-5559
▁Independent	-5560
▁mic	-5561
▁1943	-5562
hat	-5563
▁marriage	-5564
56	-5565
oka	-5566
▁Tournament	-5567
▁obtained	-5568
▁Whit	-5569
▁26,	-5570
ously	-5571
▁2003,	-5572
▁titled	-5573
▁(192	-5574
plement	-5575
▁locomot	-5576
▁Nord	-5577
▁going	-5578
▁Player	-5579
eam	-5580
▁background	-5581
▁festival	-5582
Sp	-5583
▁Honor	-5584
▁regist	-5585
▁Sher	-5586
▁Run	-5587
▁projects	-5588
-20	-5589
és	-5590
GB	-5591
▁Simon	-5592
▁Johann	-5593
ples	-5594
▁1924	-5595
▁pitch	-5596
▁sons	-5597
▁Slovak	-5598
▁Jacob	-5599
▁opera	-5600
estyle	-5601
▁Neb	-5602
▁municipal	-5603
▁Unincorporated	-5604
▁Brig	-5605
▁carried	-5606
umed	-5607
rap	-5608
▁Juan	-5609
peror	-5610
ependence	-5611
▁Kat	-5612
▁twice	-5613
▁Modern	-5614
53	-5615
▁Burn	-5616
57	-5617
▁mur	-5618
aints	-5619
▁urban	-5620
▁pp	-5621
▁step	-5622
▁Nap	-5623
▁Now	-5624
▁Historical	-5625
▁beet	-5626
▁Antar	-5627
▁27,	-5628
uries	-5629
▁log	-5630
▁remain	-5631
▁Ern	-5632
ruit	-5633
▁hours	-5634
▁Tig	-5635
▁longer	-5636
▁Schedule	-5637
▁sixth	-5638
▁reviews	-5639
▁vocal	-5640
43	-5641
ands	-5642
▁mem	-5643
▁vice	-5644
▁keep	-5645
▁integ	-5646
uties	-5647
iat	-5648
yal	-5649
ivals	-5650
ista	-5651
▁saf	-5652
acts	-5653
▁cases	-5654
omp	-5655
▁Conf	-5656
orough	-5657
▁Sy	-5658
▁Gmina	-5659
▁Ron	-5660
mes	-5661
▁Romanian	-5662
▁tall	-5663
▁Population	-5664
▁Nepal	-5665
pper	-5666
ban	-5667
▁Hampshire	-5668
▁Athletic	-5669
▁Writers	-5670
▁designated	-5671
▁theory	-5672
iva	-5673
▁diplom	-5674
▁temper	-5675
▁Local	-5676
▁max	-5677
respond	-5678
▁Lith	-5679
▁governor	-5680
▁1938	-5681
▁reserv	-5682
▁venues	-5683
▁too	-5684
▁Train	-5685
▁FM	-5686
▁Utah	-5687
▁Aud	-5688
▁Each	-5689
▁flower	-5690
season	-5691
▁feed	-5692
▁Hamilton	-5693
▁Your	-5694
▁column	-5695
▁arrest	-5696
▁entry	-5697
▁Culture	-5698
▁retirement	-5699
▁churches	-5700
▁Heart	-5701
undred	-5702
▁Catal	-5703
oles	-5704
▁Iraq	-5705
chi	-5706
part	-5707
▁Hal	-5708
pool	-5709
▁Bus	-5710
▁lyrics	-5711
oba	-5712
▁500	-5713
▁Gord	-5714
lets	-5715
▁Mand	-5716
)"	-5717
▁heavy	-5718
▁Andre	-5719
▁Deputy	-5720
uri	-5721
▁Muslim	-5722
▁thought	-5723
▁6.	-5724
▁contemporary	-5725
▁commissioned	-5726
▁cell	-5727
▁Hungary	-5728
▁Op	-5729
▁committee	-5730
▁junior	-5731
▁1941	-5732
▁pet	-5733
▁Ug	-5734
▁Taxonomy	-5735
▁cut	-5736
▁paper	-5737
▁spons	-5738
▁ess	-5739
▁Sloven	-5740
▁depart	-5741
▁kilomet	-5742
▁ther	-5743
▁approv	-5744
▁facilities	-5745
▁inters	-5746
ovo	-5747
▁airport	-5748
▁caused	-5749
lishments	-5750
▁composers	-5751
aging	-5752
▁Metro	-5753
igen	-5754
▁cultural	-5755
▁Jord	-5756
▁particularly	-5757
seud	-5758
▁Children	-5759
▁Vin	-5760
▁pra	-5761
▁Seg	-5762
▁already	-5763
Don	-5764
▁2004.	-5765
▁Well	-5766
▁Pa	-5767
▁cancer	-5768
EA	-5769
lay	-5770
én	-5771
▁182	-5772
▁op	-5773
▁Command	-5774
▁Six	-5775
▁assigned	-5776
▁Eag	-5777
▁Las	-5778
▁Var	-5779
▁Eric	-5780
▁immed	-5781
boards	-5782
rupt	-5783
▁execut	-5784
▁scholars	-5785
▁Lanka	-5786
▁Brian	-5787
▁direction	-5788
500	-5789
▁northeast	-5790
▁Dh	-5791
bar	-5792
▁29,	-5793
▁Antonio	-5794
▁journals	-5795
▁midfielders	-5796
▁Vietnam	-5797
ailand	-5798
▁Nam	-5799
lon	-5800
▁stadium	-5801
||	-5802
▁autom	-5803
▁spread	-5804
▁176	-5805
▁campus	-5806
▁Low	-5807
▁gall	-5808
▁Bureau	-5809
▁Magazine	-5810
Mar	-5811
▁Box	-5812
▁Holy	-5813
IA	-5814
▁Turn	-5815
ansion	-5816
▁Jer	-5817
▁recognized	-5818
her	-5819
▁holds	-5820
▁AC	-5821
di	-5822
▁gained	-5823
avi	-5824
ounts	-5825
37	-5826
life	-5827
count	-5828
▁temple	-5829
iled	-5830
▁promotion	-5831
gg	-5832
imal	-5833
▁Rio	-5834
▁wild	-5835
▁Lanc	-5836
▁narrow	-5837
▁flowers	-5838
mission	-5839
▁Tit	-5840
orning	-5841
▁Borough	-5842
▁Zh	-5843
▁distribution	-5844
▁figure	-5845
▁Diego	-5846
▁Wolf	-5847
▁weight	-5848
▁category	-5849
▁Yug	-5850
▁Nich	-5851
▁citiz	-5852
▁1932	-5853
-200	-5854
▁highway	-5855
▁purs	-5856
ui	-5857
▁neighborhood	-5858
rell	-5859
▁crime	-5860
▁Election	-5861
dale	-5862
othing	-5863
▁Tony	-5864
▁positions	-5865
amo	-5866
▁Fox	-5867
▁Jay	-5868
▁Oak	-5869
▁organized	-5870
▁Margar	-5871
▁2002,	-5872
writers	-5873
ructure	-5874
▁Athletes	-5875
▁offers	-5876
▁municipalities	-5877
estic	-5878
▁Vice	-5879
▁Fe	-5880
▁oldest	-5881
36	-5882
▁Farm	-5883
▁Hun	-5884
▁32	-5885
▁Miller	-5886
▁publish	-5887
ogen	-5888
▁vess	-5889
New	-5890
▁1937	-5891
▁required	-5892
▁function	-5893
TC	-5894
▁foreign	-5895
▁Ltd	-5896
▁conducted	-5897
▁founding	-5898
▁Between	-5899
▁Ty	-5900
▁room	-5901
▁hall	-5902
▁comment	-5903
▁Information	-5904
▁path	-5905
agues	-5906
inth	-5907
▁Om	-5908
▁División	-5909
▁Kl	-5910
▁Pop	-5911
rolled	-5912
–196	-5913
▁folk	-5914
▁Nick	-5915
▁Stage	-5916
▁Cycl	-5917
ikh	-5918
▁inaug	-5919
▁trains	-5920
▁1929	-5921
▁Pad	-5922
ledge	-5923
▁FIFA	-5924
wing	-5925
▁occurs	-5926
▁Selected	-5927
aver	-5928
▁Plan	-5929
atively	-5930
▁NFL	-5931
▁society	-5932
ifications	-5933
ortun	-5934
▁sources	-5935
▁medals	-5936
▁forwards	-5937
▁offered	-5938
▁(4	-5939
▁Ban	-5940
iki	-5941
eston	-5942
▁(187	-5943
▁Sel	-5944
▁1918	-5945
▁Hotel	-5946
osen	-5947
▁Prior	-5948
▁Vis	-5949
▁Grade	-5950
mod	-5951
▁Patrick	-5952
▁Cultural	-5953
▁Heritage	-5954
▁About	-5955
ads	-5956
38	-5957
standing	-5958
onse	-5959
▁northwest	-5960
▁respectively	-5961
▁7.	-5962
itted	-5963
▁display	-5964
▁Montreal	-5965
▁Verm	-5966
▁ang	-5967
oria	-5968
▁Singh	-5969
▁Ic	-5970
▁Bat	-5971
▁Bou	-5972
▁Howard	-5973
▁Ger	-5974
▁McG	-5975
zi	-5976
olas	-5977
agan	-5978
ottom	-5979
▁Row	-5980
▁Transportation	-5981
▁comes	-5982
atabase	-5983
▁1935	-5984
▁FA	-5985
▁Bry	-5986
▁Pot	-5987
▁conver	-5988
law	-5989
ffic	-5990
▁batt	-5991
▁instrument	-5992
▁2002.	-5993
spec	-5994
▁Fem	-5995
▁Channel	-5996
▁crew	-5997
▁overs	-5998
bit	-5999
▁Building	-6000
▁forced	-6001
▁Thailand	-6002
▁concert	-6003
▁confir	-6004
white	-6005
▁draft	-6006
fiction	-6007
▁recordings	-6008
▁1912	-6009
ables	-6010
▁Roll	-6011
▁Shah	-6012
▁cerem	-6013
▁secretary	-6014
▁Spr	-6015
king	-6016
▁Nigeria	-6017
ER	-6018
center	-6019
▁subs	-6020
▁Peru	-6021
▁pick	-6022
▁performances	-6023
IN	-6024
bell	-6025
39	-6026
▁Administration	-6027
▁Seat	-6028
VD	-6029
▁my	-6030
▁Politicians	-6031
ellig	-6032
get	-6033
▁Sin	-6034
din	-6035
▁mentioned	-6036
eline	-6037
▁Pitts	-6038
▁Anthony	-6039
▁feet	-6040
ampton	-6041
▁blue	-6042
▁operating	-6043
▁rate	-6044
▁1927	-6045
ulated	-6046
▁2001,	-6047
▁pair	-6048
▁Adam	-6049
otan	-6050
▁younger	-6051
▁attempt	-6052
astic	-6053
▁force	-6054
▁sal	-6055
▁Conc	-6056
▁heart	-6057
▁Captain	-6058
▁Boys	-6059
▁claimed	-6060
roit	-6061
IC	-6062
▁Glas	-6063
▁Silver	-6064
OS	-6065
oust	-6066
▁fast	-6067
▁diffic	-6068
▁Girls	-6069
ules	-6070
lywood	-6071
▁Houston	-6072
▁Guinea	-6073
▁Camer	-6074
▁hor	-6075
▁Native	-6076
gow	-6077
orf	-6078
▁Champion	-6079
uj	-6080
▁proposed	-6081
ci	-6082
▁Jam	-6083
▁turned	-6084
arus	-6085
▁Rud	-6086
▁Hills	-6087
);	-6088
don	-6089
▁1934	-6090
▁Yugoslav	-6091
▁aired	-6092
▁Rap	-6093
▁Agric	-6094
▁height	-6095
▁library	-6096
omy	-6097
▁twenty	-6098
▁particular	-6099
▁uns	-6100
▁cricketer	-6101
▁Da	-6102
▁southeast	-6103
▁decision	-6104
▁electoral	-6105
▁Frederick	-6106
▁probably	-6107
▁Gon	-6108
▁trial	-6109
▁Naval	-6110
▁perman	-6111
▁rh	-6112
▁Scient	-6113
bs	-6114
heduled	-6115
▁Section	-6116
▁Studios	-6117
▁Samuel	-6118
▁Bec	-6119
ented	-6120
▁nob	-6121
▁Hawai	-6122
▁progress	-6123
acent	-6124
ipment	-6125
▁poor	-6126
rove	-6127
jab	-6128
▁Metropolitan	-6129
VID	-6130
▁joint	-6131
▁Gard	-6132
▁Nad	-6133
▁split	-6134
▁Also	-6135
rovers	-6136
boy	-6137
roc	-6138
▁decl	-6139
▁issued	-6140
▁historian	-6141
▁Racing	-6142
▁southwest	-6143
▁doctor	-6144
▁runner	-6145
▁recently	-6146
▁headquarters	-6147
▁era	-6148
cussion	-6149
IT	-6150
kov	-6151
41	-6152
▁Ward	-6153
ading	-6154
▁Fr	-6155
▁couple	-6156
▁Anna	-6157
ymph	-6158
inguished	-6159
iated	-6160
▁finally	-6161
▁Marine	-6162
burn	-6163
▁Companies	-6164
▁flows	-6165
▁arm	-6166
▁Budd	-6167
▁Serbia	-6168
▁magazines	-6169
▁facility	-6170
▁Rey	-6171
▁norm	-6172
SR	-6173
ör	-6174
ault	-6175
▁Bachelor	-6176
▁Bund	-6177
▁Imp	-6178
iami	-6179
▁nearly	-6180
sa	-6181
▁1931	-6182
▁Race	-6183
▁nature	-6184
▁Colombia	-6185
▁makes	-6186
▁Among	-6187
▁sax	-6188
▁certain	-6189
▁2003.	-6190
▁jump	-6191
▁deputy	-6192
umes	-6193
rence	-6194
▁spot	-6195
▁ranked	-6196
▁Reb	-6197
▁da	-6198
izes	-6199
▁Shar	-6200
orkshire	-6201
▁Buck	-6202
olo	-6203
▁Lam	-6204
ports	-6205
▁valley	-6206
▁Allen	-6207
▁walk	-6208
▁Iranian	-6209
▁1922	-6210
▁leaders	-6211
▁nation	-6212
iqu	-6213
icted	-6214
▁tribut	-6215
▁Ru	-6216
▁surrounding	-6217
▁lect	-6218
▁opt	-6219
▁Roc	-6220
▁economic	-6221
eur	-6222
▁quest	-6223
ère	-6224
raduate	-6225
ando	-6226
▁Ov	-6227
▁lack	-6228
▁publications	-6229
▁Yorkshire	-6230
▁1926	-6231
▁Dougl	-6232
▁expanded	-6233
▁vac	-6234
▁industrial	-6235
▁believed	-6236
▁IV	-6237
▁Non	-6238
unte	-6239
▁1914	-6240
iph	-6241
▁Trophy	-6242
olved	-6243
▁reduc	-6244
▁flag	-6245
▁Angl	-6246
ieval	-6247
▁1933	-6248
▁give	-6249
usk	-6250
▁smaller	-6251
54	-6252
ictional	-6253
▁1925	-6254
▁combined	-6255
▁graph	-6256
ordin	-6257
▁mechan	-6258
▁|}	-6259
AF	-6260
▁Story	-6261
▁castle	-6262
▁400	-6263
▁Lower	-6264
▁Parish	-6265
▁agent	-6266
''	-6267
▁correspond	-6268
▁guest	-6269
▁Swim	-6270
▁releg	-6271
▁teaching	-6272
▁har	-6273
▁COVID	-6274
illed	-6275
▁partner	-6276
▁Today	-6277
enny	-6278
▁slight	-6279
▁resigned	-6280
▁Alger	-6281
▁stream	-6282
▁Peters	-6283
ging	-6284
▁publication	-6285
ogy	-6286
▁reserve	-6287
▁Gran	-6288
bed	-6289
▁2000.	-6290
asa	-6291
▁Ent	-6292
bishop	-6293
▁Lang	-6294
yll	-6295
▁Baronet	-6296
▁Lyn	-6297
ocated	-6298
AP	-6299
▁businessman	-6300
iley	-6301
▁lif	-6302
related	-6303
▁acce	-6304
▁paintings	-6305
incess	-6306
works	-6307
▁...	-6308
bol	-6309
▁Actress	-6310
istol	-6311
▁formation	-6312
▁defenders	-6313
▁Nel	-6314
iny	-6315
▁Conservative	-6316
eva	-6317
hammad	-6318
▁experience	-6319
▁ast	-6320
▁newly	-6321
▁Rose	-6322
▁funct	-6323
▁murder	-6324
alia	-6325
▁Morris	-6326
▁bord	-6327
▁drug	-6328
ographical	-6329
olid	-6330
▁Another	-6331
overs	-6332
aments	-6333
▁roc	-6334
▁Clev	-6335
▁principal	-6336
▁Endemic	-6337
lines	-6338
▁1917	-6339
▁cert	-6340
▁literary	-6341
istani	-6342
▁Call	-6343
ighter	-6344
erview	-6345
▁Chem	-6346
▁territory	-6347
▁Prom	-6348
▁compris	-6349
▁Kan	-6350
ining	-6351
anner	-6352
rum	-6353
▁Recipients	-6354
▁coal	-6355
▁bought	-6356
ente	-6357
aska	-6358
▁premiered	-6359
▁emerg	-6360
▁emigrants	-6361
▁Alberta	-6362
car	-6363
▁percent	-6364
▁1921	-6365
otte	-6366
▁1923	-6367
erty	-6368
weet	-6369
uro	-6370
▁Leban	-6371
▁Miami	-6372
▁Conv	-6373
oted	-6374
▁(186	-6375
▁policy	-6376
▁Christmas	-6377
▁Marie	-6378
▁Alfred	-6379
▁finishing	-6380
bach	-6381
▁80	-6382
▁thir	-6383
▁unincorporated	-6384
imore	-6385
▁wa	-6386
edom	-6387
ancing	-6388
▁Executive	-6389
▁Friend	-6390
▁Vienna	-6391
▁Studio	-6392
▁Cru	-6393
▁brothers	-6394
▁Anderson	-6395
▁Kum	-6396
▁Electric	-6397
▁bad	-6398
etic	-6399
▁Communist	-6400
▁Dave	-6401
▁distinct	-6402
▁Towns	-6403
eo	-6404
▁doubles	-6405
▁classification	-6406
iants	-6407
▁Despite	-6408
▁su	-6409
▁roof	-6410
onents	-6411
▁Azerbaijan	-6412
▁notes	-6413
▁‘	-6414
▁poets	-6415
left	-6416
AR	-6417
▁compete	-6418
raska	-6419
▁coming	-6420
chant	-6421
▁Tam	-6422
▁meters	-6423
atin	-6424
▁Winners	-6425
▁removed	-6426
▁Detroit	-6427
▁joining	-6428
odies	-6429
▁UN	-6430
▁protein	-6431
▁Author	-6432
42	-6433
▁spring	-6434
▁Surv	-6435
ls	-6436
▁Chen	-6437
▁plans	-6438
▁Product	-6439
▁UE	-6440
▁Pas	-6441
▁align	-6442
▁properties	-6443
-6	-6444
▁beat	-6445
▁partn	-6446
▁energy	-6447
▁print	-6448
urance	-6449
cycl	-6450
▁70	-6451
▁Digital	-6452
▁grad	-6453
▁cult	-6454
▁Environment	-6455
▁threat	-6456
Bl	-6457
▁Margaret	-6458
▁2023.	-6459
▁diam	-6460
▁directly	-6461
gn	-6462
▁inside	-6463
▁Gordon	-6464
ante	-6465
▁2001.	-6466
uct	-6467
▁continu	-6468
▁hotel	-6469
▁ir	-6470
▁Alan	-6471
▁pict	-6472
present	-6473
bra	-6474
▁shr	-6475
▁Last	-6476
▁locations	-6477
▁containing	-6478
▁Nebraska	-6479
▁poetry	-6480
ouncill	-6481
pet	-6482
▁Croatian	-6483
opal	-6484
▁Map	-6485
▁Sky	-6486
aching	-6487
ranean	-6488
▁losing	-6489
▁38	-6490
▁rivers	-6491
ht	-6492
▁1999,	-6493
▁Nova	-6494
▁Internet	-6495
▁journalists	-6496
CD	-6497
▁Deb	-6498
▁Christoph	-6499
▁Garden	-6500
▁tradition	-6501
▁Statistics	-6502
organ	-6503
▁Sax	-6504
▁Stone	-6505
▁dra	-6506
▁consisted	-6507
▁Mach	-6508
▁Pope	-6509
▁Ran	-6510
▁Trib	-6511
story	-6512
▁Rub	-6513
▁Cow	-6514
▁Architect	-6515
aring	-6516
▁33	-6517
room	-6518
▁Mi	-6519
▁connected	-6520
▁versions	-6521
uccess	-6522
▁37	-6523
▁destroyed	-6524
ressed	-6525
uy	-6526
▁basis	-6527
ghan	-6528
▁Nort	-6529
ecting	-6530
▁cart	-6531
▁boat	-6532
▁Alexand	-6533
▁Rot	-6534
▁Sunday	-6535
▁lists	-6536
anes	-6537
iser	-6538
▁Mayor	-6539
pre	-6540
▁ult	-6541
▁Et	-6542
▁neighbour	-6543
eon	-6544
elve	-6545
iform	-6546
shaped	-6547
▁Douglas	-6548
▁Glasgow	-6549
▁Orchestra	-6550
▁numbers	-6551
▁Dub	-6552
▁Philip	-6553
istant	-6554
▁done	-6555
▁Railroad	-6556
▁Buff	-6557
▁Brid	-6558
▁goalkeep	-6559
uma	-6560
zen	-6561
▁Moon	-6562
▁elements	-6563
iest	-6564
▁Dean	-6565
▁drivers	-6566
▁Ford	-6567
▁Reserve	-6568
rade	-6569
▁Nigerian	-6570
▁Space	-6571
▁Paralympics	-6572
▁Jama	-6573
▁Educational	-6574
ensed	-6575
▁charge	-6576
wich	-6577
igion	-6578
▁Punjab	-6579
GA	-6580
▁Bed	-6581
▁poll	-6582
▁flight	-6583
▁positive	-6584
▁Fellow	-6585
yes	-6586
▁Wa	-6587
emen	-6588
▁prize	-6589
▁quick	-6590
▁Rico	-6591
▁Note	-6592
apolis	-6593
▁31,	-6594
▁Lawrence	-6595
▁decor	-6596
▁planned	-6597
gor	-6598
▁1908	-6599
▁Lieutenant	-6600
anne	-6601
rier	-6602
▁dram	-6603
ved	-6604
▁Portland	-6605
aph	-6606
▁face	-6607
▁attend	-6608
-201	-6609
tha	-6610
▁midfielder	-6611
▁Artists	-6612
ression	-6613
TP	-6614
▁Cleveland	-6615
▁soldiers	-6616
52	-6617
▁intended	-6618
▁wings	-6619
erc	-6620
zo	-6621
▁Challenge	-6622
▁whole	-6623
▁Dol	-6624
▁Dick	-6625
▁graduating	-6626
▁cam	-6627
▁gun	-6628
▁Dall	-6629
▁championships	-6630
▁Cra	-6631
▁ham	-6632
itter	-6633
mun	-6634
▁settled	-6635
▁enter	-6636
iop	-6637
iately	-6638
ply	-6639
▁share	-6640
▁stop	-6641
▁Mem	-6642
▁friends	-6643
▁ut	-6644
▁climate	-6645
▁Lud	-6646
▁gra	-6647
▁volleyball	-6648
▁90	-6649
▁gas	-6650
▁increased	-6651
▁fail	-6652
▁Michel	-6653
▁Ni	-6654
esc	-6655
key	-6656
▁elim	-6657
▁injury	-6658
▁Phill	-6659
inder	-6660
GBT	-6661
▁Chamber	-6662
▁Kings	-6663
▁Die	-6664
▁cars	-6665
▁6–	-6666
iced	-6667
▁portion	-6668
▁Moore	-6669
acement	-6670
liga	-6671
zeg	-6672
mingham	-6673
▁collected	-6674
oses	-6675
rafted	-6676
▁Hunt	-6677
music	-6678
bassador	-6679
▁Fel	-6680
▁withd	-6681
▁1913	-6682
colspan	-6683
▁Hom	-6684
▁Pittsburgh	-6685
ridges	-6686
▁Atlanta	-6687
ophone	-6688
▁Beat	-6689
▁1999.	-6690
eces	-6691
▁constituencies	-6692
▁pian	-6693
▁qualifying	-6694
▁Forces	-6695
rone	-6696
▁Aqu	-6697
▁Urugu	-6698
51	-6699
▁Bart	-6700
▁Walker	-6701
▁Jazz	-6702
iterranean	-6703
▁continues	-6704
▁ped	-6705
olia	-6706
▁Salv	-6707
▁Matthew	-6708
▁judges	-6709
▁survey	-6710
▁Ga	-6711
imens	-6712
aza	-6713
▁Arn	-6714
ager	-6715
cluding	-6716
edition	-6717
▁typically	-6718
die	-6719
▁Fried	-6720
MP	-6721
▁equipment	-6722
outs	-6723
▁islands	-6724
▁Current	-6725
ibly	-6726
▁bomb	-6727
▁theme	-6728
▁reform	-6729
▁yards	-6730
▁finals	-6731
ify	-6732
▁$1	-6733
▁Laur	-6734
▁Tennis	-6735
▁candidates	-6736
▁Equ	-6737
▁Phot	-6738
alion	-6739
scape	-6740
▁levels	-6741
▁Minor	-6742
eta	-6743
▁Hop	-6744
▁priest	-6745
insula	-6746
ido	-6747
▁achieved	-6748
pine	-6749
▁Vik	-6750
▁LGBT	-6751
▁concept	-6752
▁derived	-6753
▁Gor	-6754
ache	-6755
▁UEFA	-6756
▁Vic	-6757
▁rang	-6758
▁Baltimore	-6759
▁Bulgarian	-6760
▁letter	-6761
ashi	-6762
▁problems	-6763
▁Stew	-6764
▁Whe	-6765
▁Serie	-6766
▁percussion	-6767
FM	-6768
▁Roberts	-6769
▁Dance	-6770
eton	-6771
▁alleg	-6772
▁estimated	-6773
▁hop	-6774
▁Madrid	-6775
▁Publications	-6776
▁daily	-6777
▁conditions	-6778
▁Upper	-6779
▁Tak	-6780
▁graduate	-6781
▁canc	-6782
bul	-6783
▁Carlos	-6784
▁São	-6785
▁Front	-6786
▁reveal	-6787
▁Dyn	-6788
▁object	-6789
▁Release	-6790
▁Speed	-6791
▁models	-6792
▁Imperial	-6793
leased	-6794
rect	-6795
▁scen	-6796
cles	-6797
▁granted	-6798
▁provincial	-6799
▁arrived	-6800
ook	-6801
▁nom	-6802
▁Beet	-6803
▁Log	-6804
ifying	-6805
▁Derby	-6806
▁Treat	-6807
▁Hug	-6808
▁McK	-6809
ici	-6810
▁commander	-6811
▁Jews	-6812
▁Mediterranean	-6813
ourg	-6814
from	-6815
▁reception	-6816
▁Net	-6817
32	-6818
▁kind	-6819
uador	-6820
▁Trade	-6821
▁shell	-6822
▁accepted	-6823
▁Sask	-6824
▁multi	-6825
▁types	-6826
▁Birmingham	-6827
▁suburb	-6828
▁Tigers	-6829
▁produce	-6830
Cl	-6831
iling	-6832
▁driver	-6833
▁adopted	-6834
roke	-6835
▁Mult	-6836
▁Market	-6837
▁scientific	-6838
▁bring	-6839
▁Sac	-6840
▁Medicine	-6841
▁rat	-6842
▁Moroc	-6843
▁sides	-6844
▁security	-6845
▁Jordan	-6846
▁targ	-6847
▁Quarter	-6848
ivity	-6849
▁Iron	-6850
▁Diocese	-6851
▁widely	-6852
▁chosen	-6853
FF	-6854
▁regions	-6855
▁inspired	-6856
▁8.	-6857
▁Ext	-6858
▁Broadcast	-6859
br	-6860
▁earth	-6861
▁Islamic	-6862
▁standings	-6863
▁offices	-6864
▁returning	-6865
▁beetle	-6866
oes	-6867
orer	-6868
▁analysis	-6869
▁words	-6870
',	-6871
evin	-6872
▁Meg	-6873
hard	-6874
▁1998,	-6875
▁Cathedral	-6876
▁Ow	-6877
audi	-6878
Gen	-6879
▁Esp	-6880
opping	-6881
aptist	-6882
,000	-6883
▁declared	-6884
▁divisions	-6885
-8	-6886
holm	-6887
▁activity	-6888
awn	-6889
uclear	-6890
▁Chand	-6891
▁vide	-6892
▁Security	-6893
thes	-6894
:#	-6895
▁Ay	-6896
▁Due	-6897
▁dates	-6898
▁refers	-6899
vious	-6900
yard	-6901
34	-6902
osis	-6903
▁1915	-6904
▁Officer	-6905
hai	-6906
▁Costa	-6907
background	-6908
▁;	-6909
▁Only	-6910
▁always	-6911
▁disease	-6912
long	-6913
family	-6914
▁Seattle	-6915
ayer	-6916
engers	-6917
▁Municipal	-6918
-4	-6919
▁fresh	-6920
▁leadership	-6921
▁Revival	-6922
US	-6923
▁1916	-6924
▁Doctor	-6925
▁Draft	-6926
▁Weekly	-6927
ester	-6928
▁sand	-6929
▁Publishing	-6930
▁coin	-6931
▁marked	-6932
▁Cities	-6933
Sc	-6934
▁maximum	-6935
▁Deaths	-6936
▁Fund	-6937
▁advanced	-6938
▁exhibition	-6939
▁Rest	-6940
▁Through	-6941
▁begins	-6942
▁scheduled	-6943
agar	-6944
▁Overall	-6945
▁Kos	-6946
onent	-6947
▁1911	-6948
▁highly	-6949
▁Romanized	-6950
▁Sn	-6951
usion	-6952
▁Afghan	-6953
▁Saskat	-6954
▁AS	-6955
aming	-6956
▁Liver	-6957
▁response	-6958
▁creation	-6959
▁lawyers	-6960
▁Pur	-6961
itched	-6962
▁initial	-6963
▁presidential	-6964
iri	-6965
▁despite	-6966
▁tim	-6967
eri	-6968
▁Infantry	-6969
po	-6970
PS	-6971
▁pand	-6972
▁ministers	-6973
▁Nevada	-6974
raight	-6975
▁rain	-6976
box	-6977
▁passes	-6978
31	-6979
illery	-6980
▁Elementary	-6981
here	-6982
▁trees	-6983
▁likely	-6984
▁Teams	-6985
miss	-6986
▁cal	-6987
▁Foot	-6988
▁Wrest	-6989
▁Tol	-6990
claim	-6991
erk	-6992
antasy	-6993
▁classes	-6994
▁wall	-6995
▁Tas	-6996
▁Veg	-6997
▁Bengal	-6998
▁compl	-6999
▁Ecuador	-7000
▁abandon	-7001
▁copies	-7002
▁clear	-7003
▁Site	-7004
▁content	-7005
99	-7006
▁converted	-7007
▁Mission	-7008
bridge	-7009
onian	-7010
▁consecutive	-7011
apted	-7012
uster	-7013
▁sales	-7014
borough	-7015
▁confirmed	-7016
RC	-7017
▁ce	-7018
acht	-7019
▁contested	-7020
▁Pierre	-7021
▁adapt	-7022
▁corpor	-7023
▁scene	-7024
▁Lad	-7025
idad	-7026
▁(6	-7027
uda	-7028
auk	-7029
▁Commander	-7030
▁launch	-7031
▁spr	-7032
aded	-7033
▁fashion	-7034
▁growing	-7035
aho	-7036
▁ends	-7037
ping	-7038
eder	-7039
▁Maced	-7040
▁Delhi	-7041
▁silent	-7042
▁Bull	-7043
▁appoint	-7044
▁Pir	-7045
▁Hend	-7046
ibbean	-7047
ellite	-7048
▁Finals	-7049
▁slightly	-7050
▁Gri	-7051
▁NAS	-7052
▁Source	-7053
▁difficult	-7054
–194	-7055
▁Lig	-7056
▁Tob	-7057
▁dead	-7058
▁hundred	-7059
▁Horn	-7060
cia	-7061
▁figures	-7062
▁Vermont	-7063
▁consult	-7064
▁Square	-7065
ception	-7066
▁Beetles	-7067
▁arg	-7068
▁Milan	-7069
▁Greater	-7070
▁forests	-7071
earing	-7072
▁Trinity	-7073
▁alone	-7074
▁dynasty	-7075
selves	-7076
▁hill	-7077
▁Associ	-7078
leton	-7079
▁net	-7080
▁Brooklyn	-7081
▁keyboards	-7082
▁Chairman	-7083
▁Age	-7084
▁Nelson	-7085
ivia	-7086
▁Victorian	-7087
ipped	-7088
ifinals	-7089
▁themselves	-7090
▁kg	-7091
▁Method	-7092
▁Mrs	-7093
ven	-7094
▁elevation	-7095
▁1998.	-7096
▁traffic	-7097
▁captured	-7098
▁auth	-7099
▁favor	-7100
fly	-7101
▁Spe	-7102
ythm	-7103
iques	-7104
▁suffered	-7105
▁Construction	-7106
oda	-7107
▁Pakistani	-7108
enne	-7109
ourses	-7110
▁workers	-7111
▁debuted	-7112
atherine	-7113
▁DVD	-7114
▁Alaska	-7115
place	-7116
oustic	-7117
▁Clar	-7118
▁giving	-7119
unda	-7120
▁Bosnia	-7121
▁performing	-7122
▁identified	-7123
▁translation	-7124
▁Who	-7125
▁Food	-7126
elo	-7127
▁volume	-7128
▁roll	-7129
aware	-7130
▁Let	-7131
▁Latv	-7132
▁enough	-7133
▁adult	-7134
elligence	-7135
▁fun	-7136
▁swimming	-7137
urray	-7138
do	-7139
cz	-7140
con	-7141
▁1890	-7142
▁Cit	-7143
▁AD	-7144
estivals	-7145
▁AM	-7146
▁entrance	-7147
ović	-7148
▁Donald	-7149
zym	-7150
▁programme	-7151
▁pione	-7152
obe	-7153
▁https	-7154
▁anth	-7155
▁dial	-7156
▁growth	-7157
ournaments	-7158
▁Ori	-7159
▁seg	-7160
▁rule	-7161
▁Cel	-7162
▁Bernard	-7163
▁Je	-7164
▁translated	-7165
▁YouT	-7166
▁peaked	-7167
ün	-7168
▁Rand	-7169
thodox	-7170
acon	-7171
▁domin	-7172
▁colour	-7173
▁listings	-7174
▁Austin	-7175
▁nearest	-7176
▁Clin	-7177
put	-7178
▁Vas	-7179
▁leave	-7180
▁CEO	-7181
▁Nash	-7182
▁establishment	-7183
▁starred	-7184
▁amateur	-7185
▁Venezuela	-7186
▁Š	-7187
▁Roger	-7188
▁horse	-7189
▁lit	-7190
▁Emperor	-7191
▁Rain	-7192
▁seventh	-7193
'.	-7194
▁composition	-7195
▁Nob	-7196
III	-7197
▁FK	-7198
▁Golf	-7199
▁1906	-7200
▁mand	-7201
▁1997,	-7202
▁cup	-7203
▁Caribbean	-7204
▁description	-7205
▁6:	-7206
▁Energy	-7207
▁pandemic	-7208
joy	-7209
urring	-7210
▁IS	-7211
umbent	-7212
▁Guy	-7213
▁Montana	-7214
▁archae	-7215
▁Gill	-7216
final	-7217
▁Dom	-7218
▁winter	-7219
▁educational	-7220
ouver	-7221
▁designer	-7222
▁Alliance	-7223
iversity	-7224
▁1996,	-7225
▁touch	-7226
▁treatment	-7227
▁Our	-7228
etta	-7229
orus	-7230
▁cann	-7231
▁Politics	-7232
▁defeating	-7233
▁nick	-7234
aire	-7235
▁trained	-7236
profit	-7237
▁brick	-7238
▁Global	-7239
▁Blues	-7240
▁Iceland	-7241
iful	-7242
▁providing	-7243
▁Guide	-7244
chell	-7245
▁170	-7246
nik	-7247
▁Bass	-7248
▁Egyptian	-7249
▁royal	-7250
▁Critical	-7251
central	-7252
▁Soft	-7253
opsis	-7254
▁immediately	-7255
rane	-7256
▁Kevin	-7257
▁Vel	-7258
ryst	-7259
sch	-7260
alam	-7261
▁colleges	-7262
▁Cole	-7263
ulu	-7264
▁passenger	-7265
▁Ry	-7266
▁Russell	-7267
▁Hud	-7268
listed	-7269
▁Bulgaria	-7270
asi	-7271
▁Jess	-7272
▁Campbell	-7273
▁grows	-7274
▁etc	-7275
stream	-7276
▁Frances	-7277
enburg	-7278
▁DJ	-7279
▁Richmond	-7280
▁Morgan	-7281
▁Lib	-7282
▁Mak	-7283
▁registered	-7284
itals	-7285
▁citizens	-7286
oen	-7287
▁Kenya	-7288
miral	-7289
▁Elections	-7290
▁grass	-7291
▁incorporated	-7292
-17	-7293
▁Mathem	-7294
▁Belarus	-7295
▁increase	-7296
▁Congo	-7297
▁(191	-7298
▁continue	-7299
▁accident	-7300
etting	-7301
▁Adams	-7302
▁Marshall	-7303
▁Jimmy	-7304
▁Literature	-7305
iminal	-7306
▁Franklin	-7307
▁producers	-7308
▁Ivan	-7309
▁attention	-7310
▁10.	-7311
igg	-7312
▁Individ	-7313
▁Anglican	-7314
▁Years	-7315
▁concent	-7316
▁yet	-7317
uary	-7318
▁Bruce	-7319
▁prec	-7320
▁Knight	-7321
▁edited	-7322
inces	-7323
▁restaurant	-7324
▁deliv	-7325
▁Events	-7326
▁39	-7327
▁Technical	-7328
▁Epis	-7329
kes	-7330
▁Stars	-7331
▁surnames	-7332
▁influence	-7333
▁Christopher	-7334
▁Patri	-7335
oj	-7336
father	-7337
LC	-7338
▁Online	-7339
wall	-7340
▁1904	-7341
▁boy	-7342
▁Croatia	-7343
▁mel	-7344
▁physical	-7345
▁jur	-7346
▁Barn	-7347
▁quality	-7348
▁controvers	-7349
▁300	-7350
rif	-7351
reng	-7352
▁Opera	-7353
▁adjacent	-7354
▁Pictures	-7355
itects	-7356
thlete	-7357
ovina	-7358
level	-7359
yg	-7360
▁Vers	-7361
▁lett	-7362
athon	-7363
gely	-7364
▁1997.	-7365
mont	-7366
ES	-7367
▁Limited	-7368
▁Fine	-7369
▁arrang	-7370
isters	-7371
▁comed	-7372
▁confl	-7373
itime	-7374
▁Liverpool	-7375
2).	-7376
▁Bowl	-7377
▁appar	-7378
▁stock	-7379
▁Invest	-7380
redited	-7381
▁summary	-7382
▁advert	-7383
▁Mol	-7384
▁Chang	-7385
▁foundation	-7386
▁Knights	-7387
▁Beg	-7388
-7	-7389
▁1996.	-7390
▁Princess	-7391
▁athletics	-7392
▁Cook	-7393
▁pack	-7394
▁Ja	-7395
▁Saudi	-7396
ierra	-7397
▁(5	-7398
▁hydro	-7399
▁videos	-7400
▁evidence	-7401
▁Ald	-7402
▁nominations	-7403
▁residential	-7404
char	-7405
▁Urban	-7406
jar	-7407
▁Gulf	-7408
rict	-7409
▁bal	-7410
▁consisting	-7411
▁Paint	-7412
▁Dark	-7413
ionally	-7414
▁150	-7415
▁Sz	-7416
▁newspapers	-7417
▁trust	-7418
▁Stewart	-7419
mb	-7420
▁benef	-7421
EP	-7422
▁1907	-7423
▁1905	-7424
▁belonging	-7425
▁opportun	-7426
▁Kazakh	-7427
▁receiving	-7428
▁1909	-7429
ás	-7430
▁Wor	-7431
▁dro	-7432
▁Thompson	-7433
▁Conservation	-7434
uki	-7435
ooth	-7436
▁oppos	-7437
▁girls	-7438
▁locomotives	-7439
▁Filip	-7440
▁domestic	-7441
▁NA	-7442
eful	-7443
▁fields	-7444
▁gymn	-7445
▁experiment	-7446
▁acid	-7447
▁publishing	-7448
▁asp	-7449
▁entitled	-7450
▁moll	-7451
▁Saints	-7452
▁Palest	-7453
▁labor	-7454
ingen	-7455
▁tributary	-7456
▁34	-7457
zer	-7458
▁impact	-7459
▁recognition	-7460
▁parliamentary	-7461
▁becomes	-7462
▁image	-7463
▁seed	-7464
▁edge	-7465
▁Musicians	-7466
▁look	-7467
inch	-7468
adow	-7469
▁implement	-7470
▁entertain	-7471
erved	-7472
▁animated	-7473
▁Fall	-7474
▁vehicles	-7475
▁Pav	-7476
▁offer	-7477
▁Nature	-7478
▁collections	-7479
▁fair	-7480
uckland	-7481
▁Zone	-7482
rot	-7483
elected	-7484
Ph	-7485
▁Full	-7486
▁effects	-7487
▁occurred	-7488
▁Eug	-7489
▁Motor	-7490
▁reference	-7491
▁steel	-7492
hop	-7493
▁subd	-7494
▁48	-7495
oca	-7496
illo	-7497
▁Pod	-7498
cont	-7499
▁permanent	-7500
▁Brothers	-7501
▁Norman	-7502
ths	-7503
erala	-7504
▁Luis	-7505
▁bands	-7506
ignated	-7507
▁daughters	-7508
door	-7509
▁Tele	-7510
▁fought	-7511
▁Mahar	-7512
chewan	-7513
mat	-7514
▁(1)	-7515
ijing	-7516
▁Dallas	-7517
▁What	-7518
▁pilot	-7519
▁Barcel	-7520
▁Murray	-7521
▁Side	-7522
▁tournaments	-7523
▁activist	-7524
▁Billy	-7525
▁Ottoman	-7526
▁search	-7527
urday	-7528
▁Dead	-7529
lections	-7530
▁spect	-7531
▁49	-7532
owned	-7533
▁flow	-7534
mund	-7535
66	-7536
agg	-7537
otic	-7538
▁shortly	-7539
▁burn	-7540
▁Progress	-7541
▁Saf	-7542
▁(9	-7543
▁critics	-7544
▁Provincial	-7545
▁largely	-7546
aman	-7547
▁contributed	-7548
▁Ryan	-7549
▁Dream	-7550
▁value	-7551
▁fell	-7552
ancouver	-7553
▁Estonian	-7554
▁Five	-7555
▁Saskatchewan	-7556
▁Kelly	-7557
▁Graham	-7558
auty	-7559
▁Pi	-7560
▁Faculty	-7561
leans	-7562
lie	-7563
▁1995,	-7564
▁lat	-7565
ographer	-7566
▁rough	-7567
▁golf	-7568
▁Anti	-7569
▁Page	-7570
aja	-7571
▁Fab	-7572
EE	-7573
▁details	-7574
▁Lions	-7575
DA	-7576
▁shape	-7577
▁theor	-7578
▁materials	-7579
▁Auckland	-7580
▁unique	-7581
▁Buffalo	-7582
▁Inst	-7583
▁Grant	-7584
▁Lux	-7585
▁samp	-7586
inos	-7587
tracks	-7588
▁*	-7589
▁cm	-7590
kar	-7591
wig	-7592
▁consider	-7593
▁1880	-7594
▁Woman	-7595
▁arranged	-7596
▁alternative	-7597
▁Plants	-7598
rees	-7599
▁guitarist	-7600
text	-7601
▁operates	-7602
▁arrested	-7603
▁Cass	-7604
▁defensive	-7605
▁submar	-7606
▁Moh	-7607
▁troops	-7608
eli	-7609
▁medicine	-7610
▁efforts	-7611
▁rot	-7612
:00	-7613
▁Hamb	-7614
▁laid	-7615
▁rebu	-7616
isations	-7617
▁adapted	-7618
▁Tan	-7619
▁distributed	-7620
▁Kerala	-7621
▁Pra	-7622
▁Orthodox	-7623
iversary	-7624
▁Then	-7625
▁renov	-7626
▁asked	-7627
▁YouTube	-7628
▁pup	-7629
▁(7	-7630
▁Primera	-7631
lift	-7632
▁Sarah	-7633
▁discuss	-7634
▁sets	-7635
▁Mall	-7636
▁ceremony	-7637
▁interior	-7638
▁corner	-7639
▁Munich	-7640
▁Tot	-7641
mith	-7642
▁aim	-7643
▁NR	-7644
▁debuts	-7645
▁twelve	-7646
▁flood	-7647
▁tropical	-7648
▁compared	-7649
unch	-7650
▁ward	-7651
country	-7652
DP	-7653
▁arms	-7654
▁mine	-7655
▁Johnny	-7656
▁expected	-7657
▁reaching	-7658
▁168	-7659
achi	-7660
▁Territory	-7661
▁runners	-7662
▁cause	-7663
▁Regular	-7664
▁Chilean	-7665
▁Churches	-7666
▁swimmers	-7667
▁spok	-7668
uls	-7669
uis	-7670
stad	-7671
▁ending	-7672
▁Bristol	-7673
esa	-7674
▁Neigh	-7675
▁Kit	-7676
alis	-7677
▁Past	-7678
▁Capital	-7679
pi	-7680
▁Upon	-7681
▁Kap	-7682
iner	-7683
▁Agency	-7684
▁reign	-7685
▁1995.	-7686
▁Manu	-7687
astery	-7688
▁measure	-7689
▁might	-7690
▁Palace	-7691
istical	-7692
▁Delaware	-7693
▁Rick	-7694
itness	-7695
ulate	-7696
▁Vancouver	-7697
▁saying	-7698
▁Robinson	-7699
▁coaching	-7700
▁1994,	-7701
▁Barcelona	-7702
ea	-7703
pa	-7704
IP	-7705
active	-7706
▁Volume	-7707
uccessful	-7708
▁nickn	-7709
▁throw	-7710
aku	-7711
▁Á	-7712
▁Kil	-7713
▁applied	-7714
▁competitors	-7715
▁vir	-7716
▁Uganda	-7717
▁Assistant	-7718
oi	-7719
issance	-7720
▁piece	-7721
▁Secret	-7722
enos	-7723
fish	-7724
▁presence	-7725
ealth	-7726
▁romantic	-7727
hl	-7728
▁contain	-7729
▁Mix	-7730
▁partnership	-7731
uru	-7732
▁bran	-7733
▁sens	-7734
resents	-7735
▁Tunis	-7736
▁superv	-7737
▁Kath	-7738
▁Adela	-7739
▁bishops	-7740
▁contributions	-7741
▁Vlad	-7742
▁Chess	-7743
▁Claud	-7744
▁Lane	-7745
▁Kon	-7746
▁Hell	-7747
▁gene	-7748
▁Primary	-7749
▁Gary	-7750
▁Falls	-7751
▁employed	-7752
▁Evans	-7753
▁leaf	-7754
▁freestyle	-7755
type	-7756
▁straight	-7757
▁Hawaii	-7758
leep	-7759
▁gre	-7760
hatt	-7761
▁agency	-7762
▁doct	-7763
▁Aber	-7764
▁rare	-7765
▁invited	-7766
▁Lakes	-7767
▁gives	-7768
▁manusc	-7769
▁Range	-7770
▁animals	-7771
autiful	-7772
▁tack	-7773
▁museums	-7774
▁priv	-7775
overy	-7776
folk	-7777
▁NY	-7778
▁Classic	-7779
▁agreement	-7780
▁garden	-7781
▁someone	-7782
▁associate	-7783
▁astron	-7784
–195	-7785
▁Beijing	-7786
otyp	-7787
▁Hem	-7788
▁Carn	-7789
▁Has	-7790
▁Wayne	-7791
▁Economic	-7792
▁9.	-7793
▁vehicle	-7794
▁Gabri	-7795
▁Voc	-7796
cluded	-7797
▁wanted	-7798
egro	-7799
▁focused	-7800
▁purpose	-7801
▁occupied	-7802
▁fruit	-7803
West	-7804
▁prin	-7805
▁scientists	-7806
merce	-7807
▁Saturday	-7808
▁premi	-7809
▁starts	-7810
aha	-7811
icient	-7812
är	-7813
▁Burg	-7814
▁talk	-7815
▁settlements	-7816
overed	-7817
anny	-7818
▁reduced	-7819
▁foss	-7820
▁1992,	-7821
▁existing	-7822
▁Bath	-7823
under	-7824
▁Hold	-7825
▁Warren	-7826
▁Emer	-7827
▁Feat	-7828
▁Jesus	-7829
aran	-7830
▁Lok	-7831
▁pale	-7832
▁receive	-7833
olec	-7834
▁Mong	-7835
zegovina	-7836
▁Baptist	-7837
▁ordered	-7838
▁represents	-7839
which	-7840
▁Cinc	-7841
▁franch	-7842
▁1993,	-7843
▁Movement	-7844
rez	-7845
▁Scotia	-7846
▁flat	-7847
▁Py	-7848
▁Mort	-7849
igenous	-7850
alem	-7851
rome	-7852
▁stands	-7853
▁1903	-7854
▁Norm	-7855
▁Bron	-7856
▁Sad	-7857
estone	-7858
anger	-7859
▁subst	-7860
▁Language	-7861
fort	-7862
▁grade	-7863
▁Wright	-7864
▁Hollywood	-7865
▁Benj	-7866
▁lot	-7867
low	-7868
ön	-7869
▁railroad	-7870
▁visited	-7871
▁Survey	-7872
▁billion	-7873
▁CS	-7874
▁Armenian	-7875
▁1994.	-7876
▁san	-7877
iya	-7878
▁Micro	-7879
▁1992.	-7880
color	-7881
▁Pil	-7882
▁egg	-7883
▁suppl	-7884
▁Fitz	-7885
▁shared	-7886
▁Senator	-7887
▁Idaho	-7888
▁Lov	-7889
▁trav	-7890
▁amount	-7891
▁Trail	-7892
onds	-7893
▁authorities	-7894
inking	-7895
▁Crown	-7896
rac	-7897
antine	-7898
▁glass	-7899
▁Pear	-7900
▁Computer	-7901
▁recomm	-7902
▁pattern	-7903
▁singing	-7904
▁IT	-7905
NC	-7906
▁Rank	-7907
▁Herzegovina	-7908
wise	-7909
▁Maz	-7910
▁extra	-7911
Ind	-7912
▁pod	-7913
atar	-7914
emble	-7915
Eng	-7916
▁hits	-7917
▁kept	-7918
master	-7919
set	-7920
▁ox	-7921
actions	-7922
▁Stanley	-7923
itars	-7924
ologies	-7925
▁Lac	-7926
▁Cooper	-7927
▁factory	-7928
iah	-7929
▁Mig	-7930
▁Tasman	-7931
▁Bav	-7932
▁Utt	-7933
▁producing	-7934
sterdam	-7935
▁Trad	-7936
▁critical	-7937
▁Ple	-7938
▁Sign	-7939
▁Plant	-7940
▁iron	-7941
▁quickly	-7942
It	-7943
08	-7944
▁Tu	-7945
▁mountains	-7946
▁Adelaide	-7947
▁Orleans	-7948
▁SR	-7949
▁selection	-7950
fall	-7951
▁Collection	-7952
pha	-7953
▁grey	-7954
▁Socialist	-7955
asp	-7956
▁Pont	-7957
75	-7958
–193	-7959
▁letters	-7960
▁approved	-7961
▁idea	-7962
▁Philippine	-7963
▁photography	-7964
owski	-7965
iab	-7966
Is	-7967
▁our	-7968
AM	-7969
▁lieutenant	-7970
▁condition	-7971
prise	-7972
▁Psych	-7973
web	-7974
▁Squadron	-7975
▁chemical	-7976
▁166	-7977
▁Mans	-7978
▁Mack	-7979
▁Hum	-7980
▁prep	-7981
él	-7982
-21	-7983
▁Standard	-7984
▁myst	-7985
▁Ships	-7986
▁hired	-7987
▁custom	-7988
▁residence	-7989
vis	-7990
rastructure	-7991
rett	-7992
▁Bruns	-7993
▁myth	-7994
innati	-7995
▁AR	-7996
yb	-7997
▁Gray	-7998
▁pool	-7999
▁technical	-8000
▁mathematic	-8001
acher	-8002
▁abandoned	-8003
dr	-8004
▁Gam	-8005
▁1993.	-8006
▁diameter	-8007
▁courses	-8008
▁strugg	-8009
▁licensed	-8010
▁Ord	-8011
▁honour	-8012
▁portray	-8013
aris	-8014
▁weekly	-8015
▁Barbara	-8016
▁affiliated	-8017
▁Gastropod	-8018
▁Sha	-8019
▁hair	-8020
▁target	-8021
▁necess	-8022
▁simply	-8023
▁enzym	-8024
▁resulting	-8025
000.	-8026
▁athlete	-8027
▁Individual	-8028
▁$2	-8029
▁therefore	-8030
▁Aer	-8031
antly	-8032
▁weap	-8033
▁Cert	-8034
reb	-8035
▁PhD	-8036
▁Sor	-8037
▁waters	-8038
lu	-8039
▁Rena	-8040
appy	-8041
▁Arena	-8042
0),	-8043
▁goes	-8044
▁Got	-8045
▁installed	-8046
dal	-8047
▁visit	-8048
rete	-8049
ogle	-8050
▁LP	-8051
▁Orange	-8052
species	-8053
▁passengers	-8054
▁Sv	-8055
▁dry	-8056
▁(8	-8057
asion	-8058
▁Theater	-8059
ture	-8060
▁collaboration	-8061
▁crown	-8062
apes	-8063
stitu	-8064
▁impr	-8065
▁Gib	-8066
▁fully	-8067
▁rear	-8068
▁Buc	-8069
-9	-8070
OR	-8071
▁resulted	-8072
▁enjoy	-8073
▁catal	-8074
▁god	-8075
▁comic	-8076
▁painted	-8077
▁1990,	-8078
idel	-8079
▁deleg	-8080
▁Ethiop	-8081
▁competing	-8082
▁formations	-8083
▁Sang	-8084
▁attractions	-8085
iko	-8086
▁simple	-8087
▁1901	-8088
"),	-8089
avan	-8090
▁monument	-8091
Ne	-8092
aba	-8093
▁Mey	-8094
▁defending	-8095
football	-8096
▁leagues	-8097
▁Cincinnati	-8098
eni	-8099
▁Sr	-8100
ifically	-8101
▁trail	-8102
▁thrill	-8103
▁calc	-8104
▁Lis	-8105
igation	-8106
orage	-8107
▁Originally	-8108
▁secret	-8109
izer	-8110
sea	-8111
run	-8112
▁chain	-8113
▁underst	-8114
▁increasing	-8115
▁Maj	-8116
▁Ian	-8117
▁Yam	-8118
▁Euro	-8119
▁Peace	-8120
▁Masters	-8121
▁exclus	-8122
▁Indonesian	-8123
▁Seb	-8124
▁Authority	-8125
▁Shang	-8126
▁induct	-8127
legiate	-8128
▁hosts	-8129
ilia	-8130
igo	-8131
▁assembly	-8132
▁tele	-8133
▁soci	-8134
▁Cuba	-8135
IV	-8136
oga	-8137
▁electronic	-8138
▁Sierra	-8139
▁supporting	-8140
▁defined	-8141
acional	-8142
▁officials	-8143
▁Amsterdam	-8144
▁mart	-8145
▁Brunswick	-8146
▁(202	-8147
▁AP	-8148
▁Daily	-8149
▁gastropod	-8150
▁Yale	-8151
odge	-8152
▁address	-8153
▁true	-8154
▁relatively	-8155
▁Commons	-8156
▁aggreg	-8157
▁Cork	-8158
▁Mond	-8159
▁Chel	-8160
mo	-8161
▁Baker	-8162
castle	-8163
▁ranking	-8164
cyclop	-8165
06	-8166
opes	-8167
▁Copa	-8168
▁thous	-8169
▁holding	-8170
▁Lag	-8171
▁Formula	-8172
▁approach	-8173
▁Philosoph	-8174
▁Ther	-8175
intend	-8176
▁install	-8177
▁1902	-8178
isor	-8179
▁reality	-8180
ifer	-8181
▁agricultural	-8182
▁Paralympic	-8183
▁Reform	-8184
19)	-8185
▁potential	-8186
▁Eagles	-8187
▁medieval	-8188
▁steam	-8189
▁Branch	-8190
▁vert	-8191
▁encour	-8192
▁frequently	-8193
▁pieces	-8194
cell	-8195
▁Architecture	-8196
1).	-8197
▁theater	-8198
▁Charlotte	-8199
ław	-8200
isb	-8201
angel	-8202
▁Warsaw	-8203
▁1990.	-8204
▁Defence	-8205
▁roads	-8206
▁Kill	-8207
▁stores	-8208
▁Face	-8209
▁1991.	-8210
▁1991,	-8211
▁$3	-8212
▁cells	-8213
5).	-8214
▁dating	-8215
rical	-8216
▁creating	-8217
▁extinct	-8218
▁fauna	-8219
▁resign	-8220
▁Private	-8221
▁credited	-8222
ario	-8223
▁Several	-8224
night	-8225
hill	-8226
▁Mold	-8227
▁participate	-8228
▁recip	-8229
▁Overview	-8230
▁Rams	-8231
▁aer	-8232
▁Luther	-8233
▁Pow	-8234
▁counter	-8235
▁Benjamin	-8236
▁revealed	-8237
General	-8238
▁Sah	-8239
▁().	-8240
▁localities	-8241
ultan	-8242
ershire	-8243
▁Pin	-8244
▁spirit	-8245
▁Antarctic	-8246
▁harm	-8247
aco	-8248
–4	-8249
▁Observ	-8250
lovak	-8251
▁Barry	-8252
HP	-8253
▁contained	-8254
▁Support	-8255
▁machine	-8256
▁passing	-8257
▁protected	-8258
▁survived	-8259
aved	-8260
▁Bert	-8261
▁walls	-8262
▁classified	-8263
oker	-8264
person	-8265
▁1898	-8266
▁Bomb	-8267
▁disapp	-8268
▁zone	-8269
▁prepar	-8270
▁Mitchell	-8271
▁honors	-8272
▁advoc	-8273
▁Table	-8274
▁Districts	-8275
▁46	-8276
▁cinema	-8277
▁Brand	-8278
bi	-8279
▁bio	-8280
▁retail	-8281
atures	-8282
amilies	-8283
ennial	-8284
omon	-8285
▁Paulo	-8286
▁Defense	-8287
▁showed	-8288
▁Small	-8289
▁application	-8290
iji	-8291
▁attorney	-8292
▁chall	-8293
▁Wang	-8294
outheastern	-8295
▁acts	-8296
100	-8297
LP	-8298
▁novelists	-8299
entures	-8300
▁engines	-8301
▁councill	-8302
egal	-8303
▁Malay	-8304
inian	-8305
riev	-8306
▁Bras	-8307
▁ethnic	-8308
▁Hindu	-8309
▁Athens	-8310
▁ov	-8311
▁Soul	-8312
▁Gust	-8313
▁Kirk	-8314
▁Mind	-8315
mel	-8316
repren	-8317
▁Judge	-8318
▁Glen	-8319
▁Stockholm	-8320
appen	-8321
▁Norfolk	-8322
▁historians	-8323
designated	-8324
▁scholar	-8325
▁Herman	-8326
▁Tower	-8327
▁Gun	-8328
overty	-8329
07	-8330
star	-8331
▁told	-8332
▁allows	-8333
▁subsidi	-8334
▁Secondary	-8335
▁Frid	-8336
umin	-8337
▁paid	-8338
▁heritage	-8339
▁44	-8340
vi	-8341
▁Broadcasting	-8342
panic	-8343
▁fictional	-8344
▁Because	-8345
ña	-8346
▁Rat	-8347
▁Ric	-8348
▁tun	-8349
▁SS	-8350
uration	-8351
annels	-8352
tered	-8353
zz	-8354
ivo	-8355
▁stood	-8356
kan	-8357
▁Communications	-8358
▁Benn	-8359
iade	-8360
▁Windows	-8361
▁MA	-8362
▁Organization	-8363
▁(2)	-8364
▁broke	-8365
▁briefly	-8366
▁Parks	-8367
▁blood	-8368
▁Carter	-8369
after	-8370
▁rob	-8371
▁Archae	-8372
▁laws	-8373
lett	-8374
▁universities	-8375
▁Hav	-8376
iable	-8377
oro	-8378
▁Sid	-8379
▁Henri	-8380
▁som	-8381
▁subsequent	-8382
▁festivals	-8383
anni	-8384
feld	-8385
etry	-8386
▁Pel	-8387
▁mixing	-8388
▁inaugural	-8389
▁studying	-8390
▁Mess	-8391
▁Nation	-8392
▁closely	-8393
icts	-8394
▁169	-8395
▁Tanz	-8396
▁mile	-8397
▁completely	-8398
▁Again	-8399
▁session	-8400
▁Kol	-8401
▁Rhode	-8402
ocr	-8403
coming	-8404
▁bridges	-8405
actor	-8406
▁butter	-8407
▁climb	-8408
▁coordin	-8409
▁regularly	-8410
▁guard	-8411
▁Encyclop	-8412
▁centuries	-8413
uction	-8414
▁Andy	-8415
▁Training	-8416
▁Cou	-8417
▁Cos	-8418
encer	-8419
▁violin	-8420
cester	-8421
▁pages	-8422
▁Had	-8423
keley	-8424
▁fine	-8425
09	-8426
ér	-8427
▁streng	-8428
▁Monten	-8429
–5	-8430
cle	-8431
▁lands	-8432
▁handball	-8433
▁Krist	-8434
cht	-8435
▁1896	-8436
▁Amaz	-8437
▁extensive	-8438
▁environmental	-8439
▁publisher	-8440
▁Prague	-8441
20)	-8442
▁bud	-8443
▁coastal	-8444
▁acoustic	-8445
oko	-8446
▁exchange	-8447
hab	-8448
▁Alt	-8449
roph	-8450
rang	-8451
▁Fight	-8452
▁territ	-8453
▁Symph	-8454
▁Dominican	-8455
▁global	-8456
▁demolished	-8457
uted	-8458
▁Lost	-8459
▁makeup	-8460
▁Peninsula	-8461
▁Kurd	-8462
▁Gaz	-8463
▁Princip	-8464
▁racial	-8465
▁Hamburg	-8466
▁tail	-8467
▁Brigade	-8468
▁unsuccessful	-8469
oye	-8470
▁authority	-8471
▁Springs	-8472
▁defender	-8473
▁cous	-8474
▁mining	-8475
uka	-8476
▁flowering	-8477
▁fly	-8478
▁Nicholas	-8479
▁botan	-8480
▁veg	-8481
▁Heb	-8482
▁justice	-8483
▁Nott	-8484
ema	-8485
▁require	-8486
▁opposition	-8487
owered	-8488
▁Diam	-8489
comp	-8490
▁whether	-8491
3).	-8492
▁formally	-8493
▁Karn	-8494
▁soundtrack	-8495
eals	-8496
▁Rac	-8497
▁42	-8498
ilis	-8499
ancell	-8500
7).	-8501
uli	-8502
▁Manit	-8503
▁Warner	-8504
▁Nu	-8505
▁Sail	-8506
▁reports	-8507
▁Schol	-8508
▁bul	-8509
▁Ł	-8510
ichi	-8511
We	-8512
aca	-8513
▁Somers	-8514
umi	-8515
err	-8516
imir	-8517
▁duo	-8518
▁1899	-8519
▁voted	-8520
▁12.	-8521
onus	-8522
▁heav	-8523
▁hands	-8524
▁birds	-8525
▁insc	-8526
▁Herbert	-8527
▁standing	-8528
▁feel	-8529
▁Competition	-8530
emy	-8531
endar	-8532
▁admitted	-8533
▁conservation	-8534
oom	-8535
▁Sig	-8536
etime	-8537
▁synthes	-8538
▁DC	-8539
▁47	-8540
▁manga	-8541
ON	-8542
▁serious	-8543
▁Constitu	-8544
ictionary	-8545
▁mouth	-8546
▁Zimb	-8547
▁Hunter	-8548
athi	-8549
iscopal	-8550
▁Kun	-8551
▁Cypr	-8552
▁generation	-8553
▁wooden	-8554
▁covering	-8555
▁relegated	-8556
▁ring	-8557
▁mess	-8558
hy	-8559
▁rounds	-8560
▁catch	-8561
▁safety	-8562
▁Performan	-8563
▁Tang	-8564
01	-8565
▁virt	-8566
▁upd	-8567
▁Kra	-8568
ET	-8569
▁streets	-8570
abwe	-8571
▁promote	-8572
▁Wrestling	-8573
▁boundary	-8574
▁functions	-8575
▁Jenn	-8576
▁Calc	-8577
film	-8578
▁existence	-8579
essions	-8580
▁Ancient	-8581
▁expansion	-8582
▁Playing	-8583
minton	-8584
load	-8585
orge	-8586
▁Document	-8587
▁extension	-8588
onder	-8589
▁eas	-8590
▁philosophy	-8591
OC	-8592
▁fans	-8593
▁injured	-8594
▁64	-8595
▁Battalion	-8596
▁Fu	-8597
8).	-8598
▁merchant	-8599
▁Jason	-8600
▁Chester	-8601
loyd	-8602
▁Amateur	-8603
▁restored	-8604
▁Slovenia	-8605
▁Jonathan	-8606
▁counties	-8607
▁branches	-8608
▁Vincent	-8609
▁organisation	-8610
▁Afghanistan	-8611
▁Sett	-8612
▁Cart	-8613
away	-8614
▁Goth	-8615
▁Gymn	-8616
orses	-8617
gate	-8618
▁setting	-8619
League	-8620
▁seconds	-8621
▁onto	-8622
aby	-8623
ivan	-8624
▁businesspeople	-8625
▁Rangers	-8626
▁Know	-8627
▁physician	-8628
▁nomination	-8629
rations	-8630
▁Report	-8631
▁owners	-8632
▁suit	-8633
▁Seven	-8634
▁1989.	-8635
icide	-8636
▁Industrial	-8637
▁Heat	-8638
▁medium	-8639
▁molec	-8640
▁Hindi	-8641
▁Oliver	-8642
▁mathematics	-8643
All	-8644
▁Insects	-8645
▁cabinet	-8646
▁Steel	-8647
▁Nak	-8648
▁Spart	-8649
▁memory	-8650
▁Hond	-8651
▁successfully	-8652
fers	-8653
▁Stre	-8654
▁Bog	-8655
▁Universiade	-8656
enson	-8657
auth	-8658
inner	-8659
▁Gonz	-8660
▁Griff	-8661
oly	-8662
team	-8663
▁shop	-8664
▁Fif	-8665
▁167	-8666
▁alt	-8667
▁tribe	-8668
▁Achiev	-8669
rica	-8670
▁Sul	-8671
▁exam	-8672
▁Attorney	-8673
▁Doubles	-8674
▁temperature	-8675
▁Franç	-8676
▁Appl	-8677
▁chose	-8678
▁independence	-8679
▁Ottawa	-8680
iago	-8681
▁Cov	-8682
allel	-8683
▁Mé	-8684
geon	-8685
▁determined	-8686
▁peace	-8687
▁Buch	-8688
amps	-8689
▁saxophone	-8690
▁ABC	-8691
▁Mason	-8692
▁Uttar	-8693
▁CF	-8694
▁animal	-8695
▁poems	-8696
▁ax	-8697
▁Ö	-8698
▁Mother	-8699
▁1989,	-8700
▁visual	-8701
▁Novels	-8702
▁protection	-8703
▁Hugh	-8704
▁belongs	-8705
maker	-8706
▁Hispanic	-8707
▁wrestling	-8708
▁mo	-8709
4).	-8710
▁Petersburg	-8711
orp	-8712
ilst	-8713
▁signing	-8714
▁separated	-8715
orers	-8716
dest	-8717
▁Alice	-8718
▁inher	-8719
On	-8720
▁thriller	-8721
▁Serge	-8722
▁volunte	-8723
▁instruct	-8724
▁compiled	-8725
ige	-8726
▁Century	-8727
lew	-8728
▁agreed	-8729
▁artistic	-8730
▁shrub	-8731
tery	-8732
▁prevent	-8733
othy	-8734
▁horror	-8735
▁recept	-8736
HS	-8737
▁courts	-8738
helm	-8739
▁Sak	-8740
▁terminus	-8741
▁Wol	-8742
▁windows	-8743
graduate	-8744
▁1895	-8745
igrated	-8746
aughter	-8747
▁41	-8748
▁1870	-8749
▁opposite	-8750
enhagen	-8751
▁1988.	-8752
▁Say	-8753
▁magn	-8754
▁Estonia	-8755
ocol	-8756
inental	-8757
▁hip	-8758
▁Comb	-8759
▁sections	-8760
▁Kennedy	-8761
hattan	-8762
▁knowledge	-8763
▁Finance	-8764
▁Ki	-8765
▁Articles	-8766
▁reasons	-8767
erself	-8768
lined	-8769
oslovak	-8770
▁seek	-8771
ducer	-8772
▁entertainment	-8773
▁1987,	-8774
acc	-8775
▁Govern	-8776
▁playw	-8777
▁Economy	-8778
▁Disney	-8779
▁audience	-8780
▁1897	-8781
zes	-8782
▁Zimbabwe	-8783
▁Lists	-8784
▁Broadway	-8785
▁Lef	-8786
▁ability	-8787
▁Isa	-8788
BI	-8789
05	-8790
▁Stanford	-8791
▁Clay	-8792
▁Aar	-8793
▁Blood	-8794
▁Charlie	-8795
▁Ral	-8796
ento	-8797
uez	-8798
apur	-8799
▁Bundes	-8800
▁Here	-8801
▁comput	-8802
▁proceed	-8803
▁Wellington	-8804
bal	-8805
▁Muhammad	-8806
original	-8807
▁Chron	-8808
▁venue	-8809
isory	-8810
▁eighth	-8811
▁Filipino	-8812
▁actually	-8813
▁slow	-8814
▁Merit	-8815
▁write	-8816
enton	-8817
▁phase	-8818
▁describes	-8819
▁engaged	-8820
onomous	-8821
▁Late	-8822
▁Ess	-8823
▁Kur	-8824
idden	-8825
▁Berkeley	-8826
▁Type	-8827
alty	-8828
▁synonym	-8829
▁dropped	-8830
▁colonial	-8831
▁clin	-8832
▁question	-8833
▁Peak	-8834
▁planning	-8835
▁consum	-8836
▁try	-8837
You	-8838
▁Jar	-8839
▁sole	-8840
▁11.	-8841
▁SA	-8842
pent	-8843
vo	-8844
▁bat	-8845
urers	-8846
▁effort	-8847
▁Archbishop	-8848
▁Gang	-8849
▁beach	-8850
haus	-8851
eno	-8852
gal	-8853
▁Fleet	-8854
▁problem	-8855
▁1894	-8856
▁Collins	-8857
▁bachelor	-8858
▁Ny	-8859
▁institution	-8860
▁Ton	-8861
▁entirely	-8862
ulus	-8863
▁chess	-8864
lee	-8865
▁Lloyd	-8866
list	-8867
▁Single	-8868
uart	-8869
▁needed	-8870
▁poem	-8871
formerly	-8872
▁appearing	-8873
▁guitars	-8874
▁rich	-8875
▁architectural	-8876
▁Trav	-8877
ija	-8878
▁CDP	-8879
▁drafted	-8880
▁Beck	-8881
eding	-8882
▁Brun	-8883
▁Dog	-8884
▁Bey	-8885
▁doc	-8886
teenth	-8887
▁intersection	-8888
isch	-8889
▁Cred	-8890
▁Aires	-8891
icy	-8892
entions	-8893
▁Math	-8894
▁Czechoslovak	-8895
iology	-8896
▁Number	-8897
▁Tall	-8898
▁Mann	-8899
▁Scientific	-8900
▁Tir	-8901
▁Ches	-8902
▁Joy	-8903
▁Fig	-8904
▁Cann	-8905
▁Manager	-8906
▁bey	-8907
▁Arabic	-8908
▁Tech	-8909
▁Pay	-8910
▁Shoot	-8911
▁Comics	-8912
▁sector	-8913
PA	-8914
▁learning	-8915
▁Drag	-8916
▁ru	-8917
ovan	-8918
sis	-8919
▁appointment	-8920
▁involving	-8921
▁channels	-8922
▁Perth	-8923
▁Jose	-8924
▁wealth	-8925
▁worldwide	-8926
▁divers	-8927
▁Josh	-8928
ocene	-8929
▁junction	-8930
▁Indoor	-8931
released	-8932
evo	-8933
▁Seeds	-8934
ivalent	-8935
▁nomine	-8936
▁Google	-8937
abi	-8938
▁volumes	-8939
▁Atlét	-8940
▁Din	-8941
aling	-8942
erd	-8943
▁Ste	-8944
▁platforms	-8945
▁Catherine	-8946
cho	-8947
ør	-8948
uta	-8949
hibition	-8950
▁funding	-8951
▁Jak	-8952
style	-8953
▁IF	-8954
eville	-8955
TS	-8956
▁bottom	-8957
▁Thai	-8958
ampa	-8959
▁inform	-8960
▁Gael	-8961
▁franchise	-8962
▁Colonel	-8963
▁Og	-8964
▁Mend	-8965
▁Tong	-8966
▁tor	-8967
▁gallery	-8968
6).	-8969
▁mut	-8970
▁resources	-8971
▁Artist	-8972
▁1892	-8973
▁Convention	-8974
▁boys	-8975
▁veget	-8976
▁gar	-8977
").	-8978
▁mac	-8979
▁Keith	-8980
olds	-8981
eters	-8982
olt	-8983
▁couples	-8984
▁Florence	-8985
▁maintained	-8986
▁murd	-8987
▁Location	-8988
asia	-8989
▁MLA	-8990
▁minute	-8991
▁Ted	-8992
insky	-8993
▁Males	-8994
uba	-8995
▁veter	-8996
▁Tourist	-8997
▁Wes	-8998
▁supply	-8999
roup	-9000
▁Aviation	-9001
▁Hein	-9002
▁sale	-9003
▁1986.	-9004
urgery	-9005
▁Representative	-9006
ader	-9007
▁instruments	-9008
▁Cha	-9009
▁Somerset	-9010
acier	-9011
enberg	-9012
▁chapel	-9013
▁Gw	-9014
eless	-9015
▁Turner	-9016
▁accompan	-9017
▁designs	-9018
▁annually	-9019
▁Lep	-9020
▁Formation	-9021
▁incumbent	-9022
friend	-9023
▁classic	-9024
▁kilometers	-9025
▁Nazi	-9026
▁legend	-9027
▁Industry	-9028
▁Ahmed	-9029
▁margin	-9030
▁Agriculture	-9031
▁liber	-9032
▁Shel	-9033
mill	-9034
▁polo	-9035
▁Manitoba	-9036
▁rapid	-9037
▁Holland	-9038
▁Yang	-9039
▁Luxemb	-9040
▁Craig	-9041
▁Grey	-9042
▁Bes	-9043
▁relay	-9044
▁Essex	-9045
▁Treas	-9046
MI	-9047
Am	-9048
▁Prop	-9049
bek	-9050
▁1988,	-9051
▁Municipalities	-9052
▁Climate	-9053
▁Poll	-9054
▁successor	-9055
▁regul	-9056
▁Buenos	-9057
etty	-9058
▁Pool	-9059
▁coached	-9060
▁Anim	-9061
▁flo	-9062
▁que	-9063
▁Manhattan	-9064
ML	-9065
▁Cad	-9066
▁Ernest	-9067
otype	-9068
▁herself	-9069
▁Phoen	-9070
▁Poin	-9071
▁bird	-9072
▁rating	-9073
▁effective	-9074
▁falls	-9075
▁Newcastle	-9076
including	-9077
lington	-9078
▁poverty	-9079
▁resc	-9080
▁Ful	-9081
▁Sabha	-9082
▁Near	-9083
▁Moz	-9084
▁Commissioner	-9085
▁drawn	-9086
▁possibly	-9087
▁1987.	-9088
▁Volleyball	-9089
▁objects	-9090
▁Giants	-9091
▁Butter	-9092
▁Ground	-9093
▁conflict	-9094
▁fishing	-9095
▁developing	-9096
-5	-9097
▁André	-9098
▁ban	-9099
▁Hann	-9100
▁banks	-9101
▁Latino	-9102
▁notably	-9103
▁Railways	-9104
▁praised	-9105
▁allowing	-9106
▁tie	-9107
ME	-9108
▁subt	-9109
▁Rav	-9110
▁Birds	-9111
ns	-9112
▁Gay	-9113
▁Midd	-9114
▁references	-9115
▁Commercial	-9116
▁degrees	-9117
▁Jerry	-9118
▁grounds	-9119
▁snow	-9120
▁images	-9121
▁initi	-9122
▁suggested	-9123
▁broadc	-9124
▁Cob	-9125
▁Copenhagen	-9126
iac	-9127
▁tier	-9128
ju	-9129
▁Jur	-9130
▁1893	-9131
▁beyond	-9132
▁Ing	-9133
▁Theod	-9134
ovsky	-9135
Can	-9136
▁mom	-9137
La	-9138
host	-9139
sur	-9140
iments	-9141
▁ahead	-9142
▁accept	-9143
amic	-9144
▁Rah	-9145
▁Insp	-9146
▁Nottingham	-9147
▁crossing	-9148
▁Sof	-9149
▁Merc	-9150
▁Brew	-9151
▁papers	-9152
▁activists	-9153
▁vo	-9154
▁commemor	-9155
▁youngest	-9156
phib	-9157
▁typical	-9158
▁Kay	-9159
▁1889	-9160
▁scientist	-9161
▁incident	-9162
▁Circuit	-9163
May	-9164
ffield	-9165
▁sprint	-9166
▁Nadu	-9167
▁songwriter	-9168
▁Polbot	-9169
▁1860	-9170
▁1885	-9171
▁internal	-9172
atical	-9173
▁cemetery	-9174
hus	-9175
ashtra	-9176
▁connection	-9177
▁Nan	-9178
▁Snow	-9179
▁surrounded	-9180
eler	-9181
▁decades	-9182
▁Wyoming	-9183
aukee	-9184
▁Together	-9185
▁Yu	-9186
▁75	-9187
▁Rou	-9188
CAR	-9189
▁1985.	-9190
rag	-9191
▁funds	-9192
▁Abbey	-9193
▁Cant	-9194
usalem	-9195
▁Slovakia	-9196
▁weather	-9197
▁pros	-9198
▁pressure	-9199
▁Dre	-9200
▁Vid	-9201
▁challeng	-9202
▁commit	-9203
▁Pedro	-9204
ascar	-9205
▁Parker	-9206
point	-9207
ounded	-9208
▁Sé	-9209
ospitals	-9210
▁advance	-9211
▁things	-9212
▁Ib	-9213
▁Gö	-9214
▁Trin	-9215
▁depict	-9216
▁Suff	-9217
▁CA	-9218
heme	-9219
▁Cruz	-9220
▁Universal	-9221
si	-9222
ahl	-9223
gr	-9224
▁Ve	-9225
▁1984.	-9226
▁Teh	-9227
urst	-9228
▁routes	-9229
▁Exchange	-9230
▁damage	-9231
▁stayed	-9232
eria	-9233
Jo	-9234
▁Magn	-9235
▁applications	-9236
▁Ek	-9237
▁Electoral	-9238
ussian	-9239
▁broadcasting	-9240
▁operate	-9241
▁120	-9242
▁says	-9243
▁cousin	-9244
▁Friedrich	-9245
▁Fut	-9246
German	-9247
▁sexual	-9248
otton	-9249
▁Economics	-9250
▁Helen	-9251
▁ple	-9252
▁Manuel	-9253
▁Contemporary	-9254
▁Coach	-9255
▁Butler	-9256
irk	-9257
▁Marg	-9258
03	-9259
winning	-9260
▁Burials	-9261
▁Oslo	-9262
▁morning	-9263
▁Ng	-9264
▁Bush	-9265
▁subfamily	-9266
▁substitute	-9267
▁eleven	-9268
▁specifically	-9269
songwriter	-9270
▁Additional	-9271
▁Tib	-9272
▁contact	-9273
▁views	-9274
▁cle	-9275
▁Bright	-9276
▁Toy	-9277
▁Salt	-9278
▁knock	-9279
▁membership	-9280
He	-9281
NS	-9282
umbai	-9283
mediate	-9284
▁replacing	-9285
▁Kash	-9286
▁ultimately	-9287
rix	-9288
▁Pic	-9289
▁plot	-9290
onna	-9291
elin	-9292
▁claims	-9293
▁attached	-9294
▁qualify	-9295
agi	-9296
▁manufacturer	-9297
▁neighbourhood	-9298
▁displ	-9299
commun	-9300
▁Ri	-9301
▁Model	-9302
▁Start	-9303
▁Sudan	-9304
▁select	-9305
▁normal	-9306
▁Leeds	-9307
▁teen	-9308
▁rooms	-9309
van	-9310
78	-9311
▁Screen	-9312
bone	-9313
cop	-9314
▁Denver	-9315
▁isol	-9316
▁Gastropods	-9317
▁kick	-9318
▁wheel	-9319
▁qualification	-9320
fe	-9321
▁anniversary	-9322
uanian	-9323
▁tried	-9324
▁Atlético	-9325
▁Jamaica	-9326
▁solid	-9327
▁headed	-9328
ipper	-9329
ahan	-9330
04	-9331
zig	-9332
▁Rights	-9333
▁1983.	-9334
▁bodies	-9335
▁caps	-9336
▁Systems	-9337
▁basic	-9338
▁Cyprus	-9339
▁1888	-9340
isd	-9341
▁window	-9342
▁Lebanon	-9343
▁unable	-9344
▁Crime	-9345
▁manufacturing	-9346
olph	-9347
▁heads	-9348
▁trump	-9349
acket	-9350
▁Set	-9351
▁Giov	-9352
▁Larry	-9353
▁rival	-9354
term	-9355
▁cru	-9356
▁Mik	-9357
DS	-9358
▁opposed	-9359
than	-9360
▁PC	-9361
terior	-9362
▁eliminated	-9363
▁soldier	-9364
▁Salvador	-9365
▁filmed	-9366
▁rebuilt	-9367
▁greater	-9368
▁equal	-9369
▁Luxembourg	-9370
▁meant	-9371
▁1986,	-9372
utions	-9373
atern	-9374
▁Coal	-9375
▁Days	-9376
▁standards	-9377
hin	-9378
▁Semi	-9379
come	-9380
▁Chi	-9381
▁script	-9382
▁flying	-9383
▁playoffs	-9384
▁parks	-9385
▁Tul	-9386
▁1891	-9387
▁Stef	-9388
ashire	-9389
▁Deputies	-9390
▁Action	-9391
▁dated	-9392
▁Patt	-9393
▁Cond	-9394
▁Mang	-9395
▁homes	-9396
▁Madison	-9397
RS	-9398
anthrop	-9399
▁Protected	-9400
repreneur	-9401
Star	-9402
▁Symphony	-9403
▁landscape	-9404
▁Performance	-9405
▁Kab	-9406
▁householder	-9407
▁thick	-9408
No	-9409
▁Harrison	-9410
02	-9411
waukee	-9412
nan	-9413
▁Mars	-9414
▁reflect	-9415
▁†	-9416
▁accommod	-9417
▁Sultan	-9418
▁IC	-9419
▁Uz	-9420
▁orchestra	-9421
optera	-9422
hal	-9423
▁Albanian	-9424
▁Johannes	-9425
▁vessels	-9426
▁Shanghai	-9427
▁snail	-9428
▁drum	-9429
oshi	-9430
uous	-9431
ascul	-9432
▁Sheffield	-9433
apest	-9434
▁Raf	-9435
▁borders	-9436
LS	-9437
elia	-9438
families	-9439
▁wine	-9440
▁assumed	-9441
grad	-9442
▁scenes	-9443
rington	-9444
▁executed	-9445
▁Princ	-9446
▁(2007)	-9447
furt	-9448
ensen	-9449
▁Brisb	-9450
▁Americans	-9451
isha	-9452
▁uncle	-9453
▁versus	-9454
▁shel	-9455
▁Lock	-9456
▁Lancashire	-9457
▁Exper	-9458
imp	-9459
orial	-9460
;"|	-9461
gom	-9462
▁Kazakhstan	-9463
▁Brisbane	-9464
▁Pul	-9465
▁favour	-9466
▁Bag	-9467
▁Bears	-9468
fo	-9469
▁employees	-9470
▁leads	-9471
Dec	-9472
▁summit	-9473
erse	-9474
scar	-9475
ipur	-9476
▁1980.	-9477
▁engineers	-9478
eonato	-9479
otion	-9480
haw	-9481
ugs	-9482
▁Durham	-9483
▁acted	-9484
idency	-9485
allists	-9486
▁Emir	-9487
–191	-9488
▁eldest	-9489
atem	-9490
▁synd	-9491
hra	-9492
utting	-9493
▁contributing	-9494
htm	-9495
▁Ski	-9496
vae	-9497
▁Unit	-9498
▁editions	-9499
▁Cameroon	-9500
▁shooting	-9501
▁1982.	-9502
rock	-9503
▁heat	-9504
▁Jerusalem	-9505
mm	-9506
▁ha	-9507
▁recre	-9508
▁agencies	-9509
▁remix	-9510
▁rose	-9511
▁Along	-9512
▁concer	-9513
▁expert	-9514
backs	-9515
68	-9516
▁sac	-9517
arma	-9518
rah	-9519
▁naval	-9520
▁stages	-9521
umberland	-9522
▁1985,	-9523
▁Vil	-9524
▁credits	-9525
uber	-9526
▁Father	-9527
▁methods	-9528
▁Nashville	-9529
▁Storm	-9530
▁vic	-9531
▁introduction	-9532
▁Canal	-9533
▁Jefferson	-9534
▁regarded	-9535
MC	-9536
atra	-9537
▁pseud	-9538
▁sed	-9539
▁Ralph	-9540
▁Female	-9541
▁Mes	-9542
▁earliest	-9543
▁scale	-9544
▁rhythm	-9545
▁scholarship	-9546
▁Campeonato	-9547
▁Nacional	-9548
▁Ost	-9549
▁Rovers	-9550
▁symbol	-9551
▁Legislature	-9552
▁Financial	-9553
▁regiment	-9554
▁Malaysian	-9555
▁Sussex	-9556
astics	-9557
▁Terry	-9558
March	-9559
▁cas	-9560
▁Oil	-9561
▁elder	-9562
eas	-9563
Music	-9564
hand	-9565
▁Swan	-9566
▁tank	-9567
adors	-9568
auge	-9569
▁incidents	-9570
district	-9571
▁threatened	-9572
build	-9573
▁Shin	-9574
▁aster	-9575
▁goalkeeper	-9576
▁(2006)	-9577
▁Thir	-9578
onne	-9579
atriates	-9580
▁descend	-9581
▁43	-9582
▁refuge	-9583
▁Productions	-9584
▁Edition	-9585
▁cyclists	-9586
▁Ring	-9587
▁55	-9588
▁Horse	-9589
▁sust	-9590
▁honorary	-9591
oti	-9592
▁Harold	-9593
▁roughly	-9594
atorial	-9595
▁driving	-9596
ém	-9597
▁propos	-9598
▁Deep	-9599
UC	-9600
clusion	-9601
ega	-9602
▁Mumbai	-9603
▁Kor	-9604
▁Was	-9605
▁hour	-9606
imo	-9607
▁Clube	-9608
▁apart	-9609
▁influenced	-9610
▁Segunda	-9611
▁Zag	-9612
TO	-9613
▁wicket	-9614
▁Ye	-9615
liminary	-9616
▁investment	-9617
cul	-9618
▁Tru	-9619
▁vessel	-9620
▁Paragu	-9621
▁View	-9622
▁academy	-9623
▁175	-9624
stanbul	-9625
▁Vern	-9626
▁Bobby	-9627
▁Future	-9628
▁organisations	-9629
▁cycle	-9630
▁physics	-9631
▁subsidiary	-9632
▁Get	-9633
▁broken	-9634
▁Data	-9635
ocracy	-9636
▁compositions	-9637
▁Cec	-9638
▁satellite	-9639
▁drive	-9640
ische	-9641
ogne	-9642
▁adaptation	-9643
▁happen	-9644
Ireland	-9645
▁Yugoslavia	-9646
edo	-9647
ED	-9648
▁1980,	-9649
▁Scar	-9650
Con	-9651
▁interests	-9652
▁1000	-9653
▁biography	-9654
ontin	-9655
▁1984,	-9656
rent	-9657
;"	-9658
▁Methodist	-9659
9).	-9660
▁Rabb	-9661
-199	-9662
▁flu	-9663
atal	-9664
▁biggest	-9665
▁Santiago	-9666
▁defin	-9667
orum	-9668
▁Krish	-9669
▁Name	-9670
operation	-9671
▁audio	-9672
▁Previous	-9673
▁Around	-9674
▁roster	-9675
▁13.	-9676
▁boxers	-9677
eda	-9678
equ	-9679
allow	-9680
▁sculpture	-9681
▁childhood	-9682
▁Gir	-9683
▁Edwards	-9684
▁heavily	-9685
ripts	-9686
▁Kann	-9687
▁(10	-9688
▁Marqu	-9689
soft	-9690
▁Wildlife	-9691
▁Glou	-9692
▁heard	-9693
▁businesses	-9694
▁Haz	-9695
▁57	-9696
▁ancest	-9697
▁humans	-9698
asan	-9699
▁Ach	-9700
HA	-9701
▁Cuban	-9702
▁Hudson	-9703
▁Shir	-9704
▁donated	-9705
▁retained	-9706
▁lob	-9707
ei	-9708
▁Arc	-9709
Donald	-9710
▁Workers	-9711
▁Dennis	-9712
▁Morocco	-9713
▁por	-9714
English	-9715
▁Jacques	-9716
▁Phoenix	-9717
▁fighting	-9718
▁Parliamentary	-9719
▁Panama	-9720
▁Sug	-9721
rus	-9722
▁Sey	-9723
▁unus	-9724
▁watch	-9725
rip	-9726
▁ruled	-9727
▁door	-9728
▁recipient	-9729
▁statue	-9730
cycle	-9731
▁ticket	-9732
▁erected	-9733
▁touchdown	-9734
▁McL	-9735
▁Archive	-9736
risis	-9737
▁religion	-9738
▁convers	-9739
▁reaction	-9740
▁tells	-9741
▁Curt	-9742
▁Drama	-9743
▁Actor	-9744
then	-9745
▁Jal	-9746
▁Pseud	-9747
▁56	-9748
ifle	-9749
▁tied	-9750
▁Beh	-9751
▁Bord	-9752
▁Expl	-9753
▁greatest	-9754
▁congress	-9755
▁friendly	-9756
▁Lic	-9757
▁selling	-9758
▁Cav	-9759
▁Operation	-9760
child	-9761
▁Ard	-9762
footballer	-9763
▁Stuart	-9764
▁profession	-9765
▁portrait	-9766
asha	-9767
▁teachers	-9768
▁Colombian	-9769
▁serial	-9770
UK	-9771
▁documents	-9772
▁skiers	-9773
ubb	-9774
chair	-9775
▁Twenty	-9776
marks	-9777
ounsel	-9778
▁noble	-9779
▁drummer	-9780
▁combination	-9781
var	-9782
▁finds	-9783
▁Suz	-9784
▁Baby	-9785
▁Duc	-9786
▁index	-9787
▁Indians	-9788
▁EPs	-9789
encing	-9790
▁Raymond	-9791
▁Arabia	-9792
▁downtown	-9793
acle	-9794
essed	-9795
▁replace	-9796
amese	-9797
▁frag	-9798
▁Gamb	-9799
▁grav	-9800
▁defense	-9801
▁Dod	-9802
abel	-9803
issa	-9804
uses	-9805
▁divor	-9806
▁(2005)	-9807
▁distinguished	-9808
occ	-9809
wald	-9810
▁patron	-9811
▁forming	-9812
ataka	-9813
▁brands	-9814
▁(15	-9815
▁1887	-9816
▁quite	-9817
▁1979.	-9818
rano	-9819
▁accomp	-9820
pass	-9821
▁die	-9822
▁Aj	-9823
▁Database	-9824
yne	-9825
▁Hope	-9826
▁Kas	-9827
edding	-9828
▁Esc	-9829
▁alleged	-9830
▁concluded	-9831
▁Grande	-9832
▁mines	-9833
▁depos	-9834
opped	-9835
▁Townships	-9836
city	-9837
▁competitive	-9838
illing	-9839
▁populated	-9840
distance	-9841
eastern	-9842
rys	-9843
▁Soph	-9844
▁les	-9845
▁58	-9846
▁Fun	-9847
▁MS	-9848
going	-9849
▁Guitar	-9850
▁nuclear	-9851
▁CP	-9852
▁Kumar	-9853
▁158	-9854
▁stret	-9855
▁Wilhelm	-9856
▁pap	-9857
▁NS	-9858
Or	-9859
▁enzyme	-9860
▁spoken	-9861
▁Ze	-9862
oku	-9863
▁Sebast	-9864
▁7:	-9865
▁Episcopal	-9866
▁Milwaukee	-9867
▁observed	-9868
▁Pack	-9869
▁Lion	-9870
▁Bil	-9871
▁Cinema	-9872
isms	-9873
▁nations	-9874
▁Grove	-9875
–189	-9876
▁expatriates	-9877
▁(1):	-9878
▁begin	-9879
▁prem	-9880
DF	-9881
▁Rut	-9882
▁Shaw	-9883
▁Miguel	-9884
▁clean	-9885
▁your	-9886
▁theat	-9887
pret	-9888
▁retiring	-9889
▁(2008)	-9890
▁cho	-9891
▁Madag	-9892
▁Citations	-9893
▁Bald	-9894
▁earthqu	-9895
▁journey	-9896
▁eye	-9897
▁legislative	-9898
▁14.	-9899
▁Lan	-9900
▁Maharashtra	-9901
▁NHL	-9902
▁grandfather	-9903
ovich	-9904
ansk	-9905
née	-9906
flies	-9907
▁fantasy	-9908
▁invasion	-9909
eeth	-9910
▁Venice	-9911
▁gal	-9912
▁goods	-9913
▁cultiv	-9914
igible	-9915
EN	-9916
▁crow	-9917
▁fleet	-9918
▁Deuts	-9919
xi	-9920
▁powerful	-9921
lain	-9922
abled	-9923
▁pianist	-9924
For	-9925
▁artif	-9926
▁Airlines	-9927
▁core	-9928
▁Hob	-9929
▁tel	-9930
-10	-9931
▁picture	-9932
asculine	-9933
▁affairs	-9934
▁Rept	-9935
▁UCI	-9936
▁Guang	-9937
▁Until	-9938
berry	-9939
▁Match	-9940
etti	-9941
▁Columbus	-9942
-16	-9943
▁hyp	-9944
▁formal	-9945
auc	-9946
▁Zamb	-9947
▁AFC	-9948
▁flora	-9949
▁Warri	-9950
▁Qualifying	-9951
▁Persian	-9952
▁attacks	-9953
alg	-9954
▁inducted	-9955
iden	-9956
▁Encyclopedia	-9957
yles	-9958
▁domain	-9959
▁bay	-9960
pat	-9961
minster	-9962
▁invent	-9963
▁Cold	-9964
anmar	-9965
itionally	-9966
▁1982,	-9967
▁instrumental	-9968
oded	-9969
▁outer	-9970
▁endings	-9971
▁Term	-9972
▁Sex	-9973
avior	-9974
▁relocated	-9975
▁carry	-9976
▁license	-9977
▁Princeton	-9978
▁hamlet	-9979
▁Actresses	-9980
▁Freedom	-9981
▁authors	-9982
▁turns	-9983
▁Eddie	-9984
▁1886	-9985
gomery	-9986
▁orn	-9987
▁somew	-9988
rates	-9989
ecution	-9990
▁Poetry	-9991
ribed	-9992
▁lakes	-9993
horn	-9994
▁Legend	-9995
uania	-9996
▁photographer	-9997
▁Vit	-9998
▁economy	-9999
▁extrem	-10000
▁Chapel	-10001
▁criminal	-10002
▁(2009)	-10003
▁equivalent	-10004
DC	-10005
▁borough	-10006
▁Vegas	-10007
▁mineral	-10008
▁Kle	-10009
▁Bod	-10010
▁dies	-10011
▁refused	-10012
▁Vand	-10013
▁mil	-10014
▁Aleks	-10015
▁bacter	-10016
▁occupation	-10017
▁Wik	-10018
▁Bolivia	-10019
▁physic	-10020
▁Stein	-10021
▁159	-10022
▁Altern	-10023
bassadors	-10024
not	-10025
▁Perry	-10026
▁Movie	-10027
▁Fiction	-10028
▁libr	-10029
▁importance	-10030
ctica	-10031
▁users	-10032
▁Canter	-10033
▁needs	-10034
▁Ridge	-10035
▁felt	-10036
▁bonus	-10037
igration	-10038
▁PA	-10039
▁Tanzania	-10040
▁Environmental	-10041
▁replacement	-10042
▁faced	-10043
lock	-10044
▁compar	-10045
▁tenure	-10046
later	-10047
eness	-10048
▁Though	-10049
▁toured	-10050
icus	-10051
▁Hat	-10052
▁grant	-10053
▁Aw	-10054
▁VI	-10055
▁1983,	-10056
rops	-10057
▁Lamb	-10058
▁Bible	-10059
▁Gaelic	-10060
lag	-10061
▁imprison	-10062
▁comics	-10063
uku	-10064
▁improve	-10065
omo	-10066
▁Museums	-10067
▁NBA	-10068
stown	-10069
ondo	-10070
▁depth	-10071
▁mobile	-10072
enda	-10073
▁Newsp	-10074
▁Administrative	-10075
▁Buddhist	-10076
tera	-10077
▁calls	-10078
▁trip	-10079
▁Robin	-10080
unting	-10081
▁Event	-10082
▁Must	-10083
mid	-10084
▁Fle	-10085
▁memorial	-10086
▁1974.	-10087
Fran	-10088
▁Bhar	-10089
▁Ji	-10090
▁Piet	-10091
▁Leo	-10092
BE	-10093
iors	-10094
▁1978.	-10095
▁combat	-10096
▁Gregory	-10097
cos	-10098
▁Admiral	-10099
▁Higher	-10100
attery	-10101
▁thirty	-10102
▁Once	-10103
▁Villa	-10104
▁something	-10105
▁fix	-10106
▁existed	-10107
▁3-	-10108
ussels	-10109
▁ATP	-10110
▁attempted	-10111
▁Rogers	-10112
playing	-10113
▁signal	-10114
▁Madagascar	-10115
dorf	-10116
second	-10117
▁52	-10118
▁Myst	-10119
▁Kw	-10120
first	-10121
▁Universities	-10122
▁indicates	-10123
▁showing	-10124
▁Neil	-10125
Col	-10126
▁(2011)	-10127
▁Franz	-10128
▁Edmon	-10129
▁guns	-10130
▁Sean	-10131
▁measures	-10132
▁sun	-10133
▁parent	-10134
bird	-10135
▁1884	-10136
▁Georgian	-10137
▁Montgomery	-10138
▁(2010)	-10139
GC	-10140
▁Myanmar	-10141
▁device	-10142
▁ninth	-10143
▁ministry	-10144
atients	-10145
▁anch	-10146
▁Control	-10147
▁parallel	-10148
▁Democrats	-10149
▁Mills	-10150
▁strike	-10151
▁hur	-10152
roe	-10153
eway	-10154
▁releases	-10155
▁conductor	-10156
▁quant	-10157
▁persons	-10158
▁monastery	-10159
mus	-10160
▁HC	-10161
▁Dra	-10162
▁mos	-10163
▁Ober	-10164
▁situation	-10165
uly	-10166
aked	-10167
atha	-10168
▁plus	-10169
▁preserved	-10170
▁attempts	-10171
ellation	-10172
▁Bundesliga	-10173
▁accompanied	-10174
eoples	-10175
▁Put	-10176
El	-10177
▁Dob	-10178
▁cited	-10179
atta	-10180
▁Friday	-10181
official	-10182
top	-10183
igs	-10184
aste	-10185
ronics	-10186
▁plate	-10187
▁circuit	-10188
▁Maritime	-10189
▁Otto	-10190
▁interested	-10191
iba	-10192
▁Lithuania	-10193
▁indicate	-10194
▁offensive	-10195
las	-10196
▁Gothic	-10197
▁ownership	-10198
▁Algeria	-10199
heng	-10200
▁Giovanni	-10201
▁sporting	-10202
▁16.	-10203
uce	-10204
▁Wing	-10205
▁obtain	-10206
▁failure	-10207
▁frame	-10208
eenth	-10209
▁Gent	-10210
omi	-10211
▁Č	-10212
▁preced	-10213
▁dog	-10214
RO	-10215
▁tur	-10216
▁Armenia	-10217
▁Mick	-10218
▁agriculture	-10219
▁link	-10220
notes	-10221
▁infl	-10222
▁string	-10223
Nov	-10224
haps	-10225
▁Grace	-10226
▁prime	-10227
▁Planet	-10228
▁66	-10229
▁Plate	-10230
▁Organizations	-10231
▁Documentary	-10232
ogo	-10233
▁Spirit	-10234
▁monarch	-10235
▁revolution	-10236
▁Karnataka	-10237
▁Winner	-10238
hou	-10239
▁underground	-10240
▁1972.	-10241
▁(2004)	-10242
Ed	-10243
▁gang	-10244
▁innings	-10245
Ad	-10246
▁Aur	-10247
boat	-10248
▁surviving	-10249
utton	-10250
ieu	-10251
▁Bened	-10252
▁Pomer	-10253
apy	-10254
otypic	-10255
▁doing	-10256
▁celebrated	-10257
▁wet	-10258
gun	-10259
▁Steven	-10260
▁Northwest	-10261
ropri	-10262
▁abolished	-10263
▁boats	-10264
▁Contest	-10265
sson	-10266
▁diplomat	-10267
▁Maurice	-10268
▁Prem	-10269
▁soil	-10270
▁Bear	-10271
▁Deport	-10272
▁Phillips	-10273
▁Lem	-10274
▁longest	-10275
▁genre	-10276
cano	-10277
▁Foss	-10278
▁Grav	-10279
▁clan	-10280
▁Uruguay	-10281
inemat	-10282
▁Guatem	-10283
▁1979,	-10284
BO	-10285
▁Mixed	-10286
rost	-10287
ku	-10288
utation	-10289
▁Indianapolis	-10290
▁Sony	-10291
▁Bot	-10292
▁Occ	-10293
▁Gilbert	-10294
▁Proper	-10295
▁infrastructure	-10296
▁Right	-10297
▁worth	-10298
▁otherwise	-10299
▁Fourth	-10300
▁Protest	-10301
▁belonged	-10302
byter	-10303
▁(2012)	-10304
▁committed	-10305
icon	-10306
▁Init	-10307
▁Canterbury	-10308
raham	-10309
▁Abdul	-10310
▁Por	-10311
break	-10312
▁Abu	-10313
▁gets	-10314
▁purposes	-10315
▁basin	-10316
▁68	-10317
▁Independence	-10318
claimed	-10319
▁Soci	-10320
▁1981.	-10321
inter	-10322
ancellor	-10323
▁representatives	-10324
ár	-10325
▁Albania	-10326
▁controlled	-10327
▁Ministers	-10328
bow	-10329
▁items	-10330
▁brig	-10331
▁Dictionary	-10332
▁investigation	-10333
sey	-10334
▁Lear	-10335
▁schedule	-10336
unes	-10337
▁Bishops	-10338
▁Southeast	-10339
▁Watson	-10340
ymology	-10341
▁fuel	-10342
▁ceased	-10343
▁Swimming	-10344
▁Cornwall	-10345
acre	-10346
icate	-10347
▁Junction	-10348
udes	-10349
▁Wu	-10350
▁Pon	-10351
▁colspan	-10352
apping	-10353
▁sell	-10354
▁Magic	-10355
▁peer	-10356
▁Lithuanian	-10357
▁Orig	-10358
▁Reserv	-10359
▁editors	-10360
▁restaurants	-10361
BL	-10362
–190	-10363
▁Gabriel	-10364
avia	-10365
▁exact	-10366
▁identity	-10367
inding	-10368
▁Wald	-10369
uing	-10370
éd	-10371
chest	-10372
▁Legacy	-10373
▁Base	-10374
▁Pep	-10375
iege	-10376
▁Confeder	-10377
▁patients	-10378
▁Ele	-10379
▁2-	-10380
▁thin	-10381
August	-10382
quer	-10383
▁Gol	-10384
ferred	-10385
▁1976.	-10386
▁decade	-10387
▁Commerce	-10388
▁Constitution	-10389
▁María	-10390
▁determine	-10391
▁Murphy	-10392
ete	-10393
▁Arnold	-10394
▁orient	-10395
▁rise	-10396
▁Ç	-10397
▁Kin	-10398
▁Vladimir	-10399
▁Hels	-10400
▁Rica	-10401
▁Edmonton	-10402
▁abroad	-10403
eto	-10404
▁riding	-10405
▁tours	-10406
▁sculptor	-10407
-12	-10408
▁Competitors	-10409
▁Mul	-10410
▁1981,	-10411
▁liqu	-10412
borg	-10413
▁reject	-10414
▁Hit	-10415
My	-10416
▁Cu	-10417
erally	-10418
▁Falc	-10419
▁cancelled	-10420
▁tow	-10421
see	-10422
Aust	-10423
▁1882	-10424
▁bed	-10425
gary	-10426
▁cannot	-10427
▁storage	-10428
▁dors	-10429
▁disband	-10430
▁Len	-10431
▁visiting	-10432
eme	-10433
▁Literary	-10434
▁Cardinals	-10435
▁Software	-10436
▁Nas	-10437
▁Guild	-10438
▁1972,	-10439
adian	-10440
▁meets	-10441
▁Devon	-10442
▁renew	-10443
▁earning	-10444
▁anime	-10445
▁Tab	-10446
▁appeal	-10447
▁Tasmania	-10448
▁Editor	-10449
▁sought	-10450
▁shore	-10451
▁Remix	-10452
mate	-10453
▁1974,	-10454
uisine	-10455
Co	-10456
rod	-10457
▁Syria	-10458
oked	-10459
▁800	-10460
raits	-10461
▁Das	-10462
▁1973.	-10463
▁Path	-10464
bas	-10465
phas	-10466
▁incorpor	-10467
▁extens	-10468
▁ones	-10469
emed	-10470
alus	-10471
▁dismiss	-10472
▁Sic	-10473
▁Friends	-10474
▁protect	-10475
▁Byz	-10476
atsu	-10477
idea	-10478
▁Gren	-10479
rystal	-10480
vent	-10481
rio	-10482
rators	-10483
UP	-10484
▁gain	-10485
▁techniques	-10486
▁Daw	-10487
eca	-10488
▁ille	-10489
▁×	-10490
▁bin	-10491
▁Hebrew	-10492
▁1975.	-10493
issue	-10494
▁larvae	-10495
pes	-10496
gi	-10497
▁1881	-10498
▁Aircraft	-10499
▁delivered	-10500
▁1978,	-10501
▁Chan	-10502
▁inner	-10503
rypt	-10504
bes	-10505
forc	-10506
auer	-10507
▁Ligue	-10508
forming	-10509
▁necessary	-10510
oan	-10511
▁Calgary	-10512
anyon	-10513
▁merger	-10514
▁Policy	-10515
▁Hab	-10516
▁Raz	-10517
ategy	-10518
▁CBS	-10519
–12	-10520
new	-10521
▁bright	-10522
▁labels	-10523
▁metre	-10524
▁chamber	-10525
cats	-10526
▁Hir	-10527
elect	-10528
▁Jin	-10529
ammals	-10530
▁Malta	-10531
four	-10532
▁Reptiles	-10533
▁Tommy	-10534
▁residing	-10535
▁Papua	-10536
fare	-10537
▁concrete	-10538
▁Institut	-10539
zhou	-10540
olves	-10541
▁ordained	-10542
ès	-10543
▁(2003)	-10544
▁conce	-10545
oured	-10546
▁duties	-10547
▁Next	-10548
▁nurs	-10549
▁tries	-10550
▁damaged	-10551
▁Mam	-10552
▁15.	-10553
▁Laura	-10554
▁architects	-10555
bie	-10556
▁EC	-10557
▁subjects	-10558
▁honours	-10559
▁fold	-10560
▁mis	-10561
encia	-10562
▁examples	-10563
▁sponsored	-10564
–10	-10565
▁produces	-10566
adh	-10567
▁Pand	-10568
▁fung	-10569
▁Gate	-10570
sor	-10571
lia	-10572
▁spots	-10573
ān	-10574
roduction	-10575
▁Transl	-10576
▁Mayors	-10577
▁Hass	-10578
ographers	-10579
–15	-10580
▁Leonard	-10581
▁exhibited	-10582
▁IP	-10583
▁linked	-10584
▁pull	-10585
rine	-10586
▁forew	-10587
▁metropolitan	-10588
▁Apost	-10589
riptions	-10590
ksh	-10591
▁Dj	-10592
trans	-10593
ST	-10594
insk	-10595
▁entering	-10596
▁SP	-10597
▁heir	-10598
▁Manufact	-10599
▁Amazon	-10600
▁expedition	-10601
▁shares	-10602
▁Ghost	-10603
▁accused	-10604
ephew	-10605
▁Apple	-10606
▁Nathan	-10607
As	-10608
▁Wells	-10609
▁Morning	-10610
▁51	-10611
▁opponents	-10612
berto	-10613
▁vocalist	-10614
ndez	-10615
▁Jung	-10616
▁Dest	-10617
▁1976,	-10618
rows	-10619
▁NC	-10620
▁64,	-10621
▁beauty	-10622
▁sequence	-10623
▁Return	-10624
▁purchase	-10625
ados	-10626
▁ways	-10627
▁prisoners	-10628
▁Fernando	-10629
alu	-10630
▁founders	-10631
antin	-10632
ivic	-10633
oirs	-10634
idal	-10635
▁1977.	-10636
▁Engineers	-10637
▁59	-10638
▁1850	-10639
amer	-10640
uchi	-10641
icz	-10642
▁Lah	-10643
▁correct	-10644
▁aggregate	-10645
azar	-10646
▁Anglo	-10647
▁carbon	-10648
ulum	-10649
anti	-10650
▁Antarctica	-10651
▁Harvey	-10652
▁Gujar	-10653
tenance	-10654
chang	-10655
▁Ambassador	-10656
▁Archives	-10657
aji	-10658
86	-10659
▁Text	-10660
▁Crist	-10661
▁Dim	-10662
▁Istanbul	-10663
▁Madh	-10664
cestershire	-10665
▁Lankan	-10666
▁Um	-10667
▁Surrey	-10668
arians	-10669
▁milit	-10670
Wh	-10671
77	-10672
historic	-10673
▁cyclist	-10674
▁Bulld	-10675
▁novelist	-10676
▁armed	-10677
▁Vict	-10678
avier	-10679
▁concerts	-10680
▁stating	-10681
▁Mut	-10682
▁sculptures	-10683
▁1971.	-10684
United	-10685
▁getting	-10686
▁Monte	-10687
▁1970.	-10688
▁Saxony	-10689
▁avoid	-10690
▁limit	-10691
▁Writing	-10692
aceous	-10693
▁Ladies	-10694
▁Valent	-10695
urop	-10696
▁1883	-10697
▁Ceram	-10698
▁Kem	-10699
▁segment	-10700
▁acquis	-10701
enses	-10702
oque	-10703
▁grandson	-10704
▁whilst	-10705
▁predecess	-10706
▁Budapest	-10707
▁Cabinet	-10708
▁mist	-10709
▁refere	-10710
▁request	-10711
anche	-10712
▁Outstanding	-10713
lass	-10714
rieved	-10715
▁regarding	-10716
▁actions	-10717
▁Newton	-10718
▁fan	-10719
lez	-10720
▁Dix	-10721
▁visitors	-10722
▁Bach	-10723
▁Slovenian	-10724
▁Vij	-10725
EL	-10726
▁Bavaria	-10727
▁Wak	-10728
▁dig	-10729
▁communes	-10730
▁af	-10731
south	-10732
▁Neg	-10733
sil	-10734
▁Sap	-10735
foundland	-10736
–21	-10737
▁surf	-10738
▁recru	-10739
▁convicted	-10740
▁ranks	-10741
▁orders	-10742
▁sense	-10743
/201	-10744
iper	-10745
▁ago	-10746
▁Anders	-10747
▁risk	-10748
borne	-10749
▁user	-10750
▁adventure	-10751
arks	-10752
▁Kre	-10753
▁baron	-10754
▁(2013)	-10755
azi	-10756
▁Susan	-10757
iao	-10758
▁enemy	-10759
▁XI	-10760
▁literacy	-10761
eded	-10762
akk	-10763
▁Renaissance	-10764
oland	-10765
▁managing	-10766
aeus	-10767
▁McM	-10768
▁Motors	-10769
▁Presbyter	-10770
▁Hil	-10771
▁1977,	-10772
▁internationally	-10773
▁planet	-10774
.”	-10775
▁Drive	-10776
▁speech	-10777
▁exerc	-10778
▁sentenced	-10779
–192	-10780
▁database	-10781
Qu	-10782
▁Publish	-10783
▁grown	-10784
▁visible	-10785
▁Ras	-10786
▁Muk	-10787
▁Trinidad	-10788
▁price	-10789
▁organised	-10790
eric	-10791
▁poly	-10792
▁Index	-10793
▁skills	-10794
igi	-10795
▁Oscar	-10796
anion	-10797
▁Ti	-10798
stract	-10799
ffee	-10800
phone	-10801
rovision	-10802
▁rapper	-10803
alli	-10804
▁movies	-10805
▁Eld	-10806
imen	-10807
▁attacked	-10808
▁54	-10809
▁helping	-10810
▁1975,	-10811
▁Rus	-10812
▁suspended	-10813
▁Joan	-10814
▁Lil	-10815
▁legs	-10816
▁housed	-10817
▁blog	-10818
rity	-10819
enzo	-10820
boys	-10821
▁Luke	-10822
-23	-10823
▁Plat	-10824
▁Distinguished	-10825
▁IB	-10826
ospel	-10827
▁Bonn	-10828
thyl	-10829
▁Hyd	-10830
▁Ster	-10831
bound	-10832
▁1970,	-10833
▁fastest	-10834
▁Isle	-10835
▁Wals	-10836
ags	-10837
avalry	-10838
▁steep	-10839
▁terminal	-10840
En	-10841
▁Ž	-10842
rose	-10843
▁centers	-10844
▁focuses	-10845
▁Eight	-10846
▁calling	-10847
▁experimental	-10848
▁Newfoundland	-10849
▁Folk	-10850
▁Walt	-10851
awi	-10852
▁Chall	-10853
▁Currently	-10854
▁representation	-10855
▁bats	-10856
▁matter	-10857
▁gard	-10858
▁innov	-10859
▁Operations	-10860
itable	-10861
phis	-10862
▁chemistry	-10863
▁1878	-10864
▁doctorate	-10865
asant	-10866
▁1945,	-10867
angered	-10868
▁connects	-10869
▁Progressive	-10870
HF	-10871
illes	-10872
rafts	-10873
▁1968,	-10874
▁exhibitions	-10875
▁senators	-10876
▁Access	-10877
▁Annual	-10878
sters	-10879
▁Mine	-10880
▁hills	-10881
June	-10882
▁Dund	-10883
▁widow	-10884
iche	-10885
▁attending	-10886
88	-10887
▁Namib	-10888
direct	-10889
▁memor	-10890
▁riders	-10891
rish	-10892
▁Fly	-10893
▁strateg	-10894
▁Cyr	-10895
▁protest	-10896
▁occasions	-10897
▁premiere	-10898
▁Bran	-10899
▁Colonial	-10900
ographies	-10901
ussia	-10902
▁Banks	-10903
▁economics	-10904
jiang	-10905
▁easily	-10906
▁till	-10907
▁Pale	-10908
▁connecting	-10909
boro	-10910
arta	-10911
▁Roster	-10912
▁completing	-10913
▁offering	-10914
oven	-10915
itus	-10916
▁didn	-10917
▁Compos	-10918
tor	-10919
79	-10920
▁opportunity	-10921
At	-10922
▁Bronze	-10923
▁Java	-10924
▁Hurling	-10925
▁Telugu	-10926
▁Kad	-10927
▁Every	-10928
▁Dragon	-10929
▁gender	-10930
WF	-10931
▁bic	-10932
▁rub	-10933
▁fixed	-10934
cidae	-10935
▁Capit	-10936
RI	-10937
▁smooth	-10938
▁Sheriff	-10939
▁symp	-10940
▁GP	-10941
▁Fra	-10942
▁learned	-10943
▁choice	-10944
icia	-10945
▁jurisd	-10946
bug	-10947
▁assign	-10948
▁camera	-10949
▁Saw	-10950
▁FIBA	-10951
▁bold	-10952
▁filled	-10953
▁southeastern	-10954
▁landing	-10955
▁Hear	-10956
▁conserv	-10957
▁emp	-10958
▁experi	-10959
▁canton	-10960
apped	-10961
▁excell	-10962
andro	-10963
▁cold	-10964
▁Thorn	-10965
▁proved	-10966
▁photo	-10967
ayed	-10968
care	-10969
owo	-10970
esse	-10971
▁Own	-10972
▁44,	-10973
▁bear	-10974
rien	-10975
▁Cle	-10976
▁aid	-10977
April	-10978
▁Voice	-10979
▁ambassador	-10980
▁productions	-10981
▁Religious	-10982
▁Franco	-10983
▁Ana	-10984
▁reaches	-10985
eared	-10986
▁Westminster	-10987
▁marketing	-10988
▁Craw	-10989
rong	-10990
▁Dame	-10991
while	-10992
▁Campaign	-10993
olly	-10994
inda	-10995
▁Aberde	-10996
▁pitcher	-10997
▁1879	-10998
▁pul	-10999
▁17.	-11000
▁Bour	-11001
▁resistance	-11002
▁1945.	-11003
▁panel	-11004
▁1865	-11005
▁Made	-11006
▁Sweet	-11007
▁designation	-11008
Best	-11009
pective	-11010
▁headquarter	-11011
This	-11012
▁1971,	-11013
▁à	-11014
▁duty	-11015
itis	-11016
▁Mean	-11017
▁Beth	-11018
▁bes	-11019
▁educator	-11020
October	-11021
▁Hughes	-11022
ullivan	-11023
Pro	-11024
▁Speedway	-11025
▁Opp	-11026
▁Bj	-11027
▁pun	-11028
▁20.	-11029
▁toward	-11030
▁predomin	-11031
▁Philosophy	-11032
▁temporary	-11033
▁1973,	-11034
▁actual	-11035
▁carrying	-11036
okie	-11037
▁squadron	-11038
▁Ari	-11039
▁Stafford	-11040
▁seems	-11041
▁1876	-11042
▁furn	-11043
▁nav	-11044
▁improved	-11045
July	-11046
▁layout	-11047
▁diagn	-11048
–14	-11049
athlon	-11050
▁Ghanaian	-11051
–13	-11052
September	-11053
▁repair	-11054
reck	-11055
thal	-11056
▁ft	-11057
▁posted	-11058
▁Physics	-11059
▁Isaac	-11060
John	-11061
▁Tat	-11062
avian	-11063
▁Clarke	-11064
▁Middles	-11065
▁kid	-11066
▁Handball	-11067
▁prepared	-11068
▁occasionally	-11069
▁southwestern	-11070
▁Sou	-11071
tz	-11072
▁stem	-11073
▁Left	-11074
▁rect	-11075
▁seeds	-11076
▁causing	-11077
▁weapons	-11078
uvian	-11079
▁Carr	-11080
high	-11081
▁dramat	-11082
5,000	-11083
▁Reading	-11084
rams	-11085
▁Uzbek	-11086
▁Legion	-11087
▁Wed	-11088
▁hang	-11089
▁discontin	-11090
▁Jen	-11091
▁Edmund	-11092
▁Seoul	-11093
atters	-11094
▁Prison	-11095
him	-11096
▁Code	-11097
▁convent	-11098
urname	-11099
▁drain	-11100
▁Belf	-11101
▁technique	-11102
▁Present	-11103
▁administrator	-11104
ieg	-11105
axy	-11106
▁Kid	-11107
▁Interview	-11108
▁motion	-11109
76	-11110
▁popularity	-11111
▁BA	-11112
▁arc	-11113
▁Hous	-11114
▁Tourism	-11115
▁completion	-11116
▁boundaries	-11117
stroke	-11118
▁(2014)	-11119
▁victor	-11120
?"	-11121
▁Moll	-11122
▁4-	-11123
South	-11124
▁Wag	-11125
▁Raid	-11126
▁Points	-11127
▁reserves	-11128
▁locally	-11129
▁Cher	-11130
▁pioneer	-11131
osure	-11132
yler	-11133
▁Particip	-11134
▁1800	-11135
▁northeastern	-11136
ogical	-11137
▁caught	-11138
▁Mobile	-11139
▁capita	-11140
iar	-11141
onymous	-11142
▁Gas	-11143
▁subspecies	-11144
▁think	-11145
▁blocks	-11146
▁causes	-11147
▁scope	-11148
▁Ruth	-11149
▁Brussels	-11150
▁lecturer	-11151
▁Bedford	-11152
▁printed	-11153
▁frog	-11154
And	-11155
▁Eurovision	-11156
▁(2002)	-11157
▁Course	-11158
estan	-11159
▁Fras	-11160
▁escape	-11161
▁Revolutionary	-11162
▁somewhat	-11163
▁Aub	-11164
▁rated	-11165
▁Bak	-11166
▁blues	-11167
women	-11168
▁1874	-11169
▁Belgrade	-11170
▁HMS	-11171
–22	-11172
▁Yellow	-11173
ving	-11174
–188	-11175
ben	-11176
▁cycling	-11177
▁chapter	-11178
▁Malayalam	-11179
founded	-11180
▁Cricketers	-11181
▁latest	-11182
▁Liberty	-11183
▁manufacturers	-11184
omorph	-11185
ocation	-11186
sequently	-11187
▁1968.	-11188
▁Names	-11189
▁presenter	-11190
rating	-11191
▁excav	-11192
▁traded	-11193
▁Pos	-11194
▁factor	-11195
▁influential	-11196
▁NBC	-11197
▁Flying	-11198
▁resignation	-11199
▁contrast	-11200
ruption	-11201
December	-11202
▁trying	-11203
▁Physical	-11204
▁intelligence	-11205
▁aqu	-11206
illon	-11207
▁killing	-11208
▁tex	-11209
▁recipients	-11210
uras	-11211
rehens	-11212
▁Schw	-11213
▁Bun	-11214
▁Montenegro	-11215
▁Artillery	-11216
▁emphas	-11217
▁Dum	-11218
iration	-11219
roid	-11220
▁manuscript	-11221
▁soap	-11222
▁restoration	-11223
January	-11224
▁1969,	-11225
GS	-11226
▁entrepreneur	-11227
▁compound	-11228
▁Care	-11229
▁Comedy	-11230
▁Algerian	-11231
iture	-11232
▁Oakland	-11233
ipzig	-11234
km	-11235
▁hind	-11236
athers	-11237
IM	-11238
who	-11239
▁coverage	-11240
▁pairs	-11241
▁Bradford	-11242
fa	-11243
▁lasted	-11244
▁Kingston	-11245
ders	-11246
rosse	-11247
▁Mull	-11248
▁Price	-11249
▁Wallace	-11250
ishi	-11251
▁cards	-11252
▁Additionally	-11253
inations	-11254
▁touring	-11255
ça	-11256
etters	-11257
▁bid	-11258
▁Sofia	-11259
▁Lav	-11260
▁Lot	-11261
▁nephew	-11262
▁Diamond	-11263
▁Newport	-11264
▁Facebook	-11265
▁assistance	-11266
▁boxing	-11267
ardi	-11268
hall	-11269
▁communication	-11270
▁drawing	-11271
▁Within	-11272
▁swimmer	-11273
▁illustrated	-11274
▁Rab	-11275
▁Va	-11276
▁Clinton	-11277
▁orange	-11278
▁budget	-11279
▁Tag	-11280
iu	-11281
▁Venezuelan	-11282
▁comprises	-11283
▁Flight	-11284
▁remainder	-11285
erness	-11286
▁twin	-11287
▁elementary	-11288
▁1969.	-11289
▁SK	-11290
▁Macedonia	-11291
▁ranges	-11292
▁util	-11293
race	-11294
▁Sep	-11295
▁Neighbour	-11296
▁Less	-11297
tees	-11298
▁Ludwig	-11299
▁territories	-11300
▁Resources	-11301
▁Bulldogs	-11302
▁aviation	-11303
▁collaborated	-11304
▁Presidents	-11305
▁task	-11306
▁1877	-11307
▁1864	-11308
amy	-11309
▁photos	-11310
▁expressed	-11311
▁fram	-11312
▁hero	-11313
▁Gardens	-11314
▁violence	-11315
TE	-11316
bus	-11317
amar	-11318
oya	-11319
▁2019–20	-11320
▁Foster	-11321
ework	-11322
▁Magazines	-11323
▁manufactured	-11324
▁18.	-11325
▁Eg	-11326
▁NASCAR	-11327
▁53	-11328
▁rein	-11329
erne	-11330
odia	-11331
length	-11332
▁Mario	-11333
▁illness	-11334
ód	-11335
▁categories	-11336
▁Palmer	-11337
▁charged	-11338
▁Rhodes	-11339
▁Pu	-11340
▁repeated	-11341
forms	-11342
▁Mathematics	-11343
izz	-11344
Ital	-11345
▁horn	-11346
▁inhab	-11347
▁shopping	-11348
▁PS	-11349
▁Latvia	-11350
▁supports	-11351
▁dancer	-11352
only	-11353
▁Metal	-11354
▁Delta	-11355
▁1875	-11356
▁Legal	-11357
▁156	-11358
▁terror	-11359
wi	-11360
pping	-11361
▁Fact	-11362
▁mind	-11363
▁69	-11364
ipeg	-11365
▁Popular	-11366
▁talent	-11367
▁Student	-11368
--	-11369
eor	-11370
▁participation	-11371
icas	-11372
hoods	-11373
artet	-11374
▁advertising	-11375
▁submarine	-11376
▁Kö	-11377
▁dim	-11378
mosph	-11379
WA	-11380
▁devices	-11381
▁Dip	-11382
▁Much	-11383
▁Candid	-11384
▁playoff	-11385
▁(2015)	-11386
▁Lutheran	-11387
▁bibl	-11388
▁acres	-11389
▁Classical	-11390
▁phen	-11391
ometown	-11392
writing	-11393
▁alco	-11394
▁Territ	-11395
▁pitched	-11396
▁Hed	-11397
▁triang	-11398
lies	-11399
▁Janeiro	-11400
ucle	-11401
Japan	-11402
sw	-11403
▁Louise	-11404
▁Presbyterian	-11405
▁voting	-11406
▁Roads	-11407
▁circum	-11408
▁Sox	-11409
▁Hod	-11410
▁Swimmers	-11411
chief	-11412
▁Allan	-11413
▁Spencer	-11414
▁reconst	-11415
▁mollusk	-11416
▁gardens	-11417
onica	-11418
andra	-11419
▁MV	-11420
▁{	-11421
▁outdoor	-11422
▁wounded	-11423
▁Parad	-11424
▁1872	-11425
▁160	-11426
▁cuisine	-11427
▁proced	-11428
orrow	-11429
▁unusual	-11430
▁stopped	-11431
DI	-11432
len	-11433
Ex	-11434
elfare	-11435
▁charges	-11436
▁transition	-11437
▁affected	-11438
▁Tibet	-11439
▁Shield	-11440
▁Lebanese	-11441
/200	-11442
▁Students	-11443
album	-11444
fin	-11445
▁Peruvian	-11446
▁Syrian	-11447
▁congreg	-11448
▁reporter	-11449
usa	-11450
olin	-11451
▁afterwards	-11452
▁Cox	-11453
▁looking	-11454
htt	-11455
▁Fifth	-11456
▁Counties	-11457
fr	-11458
▁Riv	-11459
▁participating	-11460
archive	-11461
▁Rochester	-11462
nai	-11463
▁174	-11464
▁Danny	-11465
▁charity	-11466
▁1967.	-11467
▁Ker	-11468
▁(2016)	-11469
▁Abraham	-11470
▁holid	-11471
▁lingu	-11472
▁Thor	-11473
founder	-11474
▁Ferr	-11475
▁Complete	-11476
Hz	-11477
▁Relations	-11478
ogan	-11479
▁(2001)	-11480
pers	-11481
▁Pete	-11482
manuel	-11483
▁Meh	-11484
oire	-11485
▁parishes	-11486
▁1863	-11487
▁warm	-11488
▁butterfly	-11489
thum	-11490
▁philanthrop	-11491
▁Fat	-11492
inki	-11493
▁Ethiopia	-11494
▁Santos	-11495
pin	-11496
▁Agricultural	-11497
▁Ceramby	-11498
▁doll	-11499
▁Sylv	-11500
–23	-11501
where	-11502
▁Ax	-11503
▁François	-11504
▁indicated	-11505
▁Winnipeg	-11506
rh	-11507
▁salt	-11508
anca	-11509
▁corporate	-11510
foot	-11511
▁Frankfurt	-11512
recht	-11513
ibn	-11514
▁file	-11515
▁topics	-11516
▁1500	-11517
mates	-11518
▁ratio	-11519
strong	-11520
▁substant	-11521
▁Mechan	-11522
abe	-11523
▁epit	-11524
▁operator	-11525
RT	-11526
cole	-11527
▁Dong	-11528
ectors	-11529
▁guide	-11530
▁Uruguayan	-11531
▁1861	-11532
▁elevated	-11533
▁gauge	-11534
▁Liv	-11535
▁Recording	-11536
▁Shen	-11537
▁250	-11538
▁Microsoft	-11539
▁screenwriter	-11540
▁transportation	-11541
▁sang	-11542
Man	-11543
Sch	-11544
▁deploy	-11545
▁significance	-11546
▁Soon	-11547
eties	-11548
▁Ahmad	-11549
▁Guardian	-11550
▁beautiful	-11551
▁indoor	-11552
written	-11553
▁remov	-11554
▁clergy	-11555
▁Talk	-11556
asure	-11557
rative	-11558
▁1873	-11559
▁Kom	-11560
▁Geoff	-11561
▁Davies	-11562
▁artwork	-11563
▁surgery	-11564
▁specimens	-11565
▁İ	-11566
▁Rush	-11567
▁Him	-11568
▁Settlement	-11569
▁Cornell	-11570
▁Hiro	-11571
achers	-11572
▁enrolled	-11573
▁1868	-11574
ég	-11575
▁Visc	-11576
▁mort	-11577
▁Leader	-11578
▁Indies	-11579
▁Ambassadors	-11580
ango	-11581
▁Statistical	-11582
▁1967,	-11583
▁victims	-11584
▁equipped	-11585
▁Palestine	-11586
▁Gerald	-11587
▁farmer	-11588
▁wrestlers	-11589
▁Jag	-11590
▁Hull	-11591
▁rabb	-11592
▁martial	-11593
▁Jerem	-11594
▁Steph	-11595
▁(2000)	-11596
▁Etymology	-11597
▁SV	-11598
▁testing	-11599
▁tools	-11600
▁funded	-11601
she	-11602
▁creative	-11603
Love	-11604
▁graduation	-11605
▁styl	-11606
ellect	-11607
▁Ult	-11608
▁Andrews	-11609
▁maps	-11610
▁impl	-11611
▁themes	-11612
▁specialized	-11613
▁Anal	-11614
ser	-11615
▁relief	-11616
▁arrangement	-11617
▁Bengali	-11618
▁Glacier	-11619
▁powered	-11620
▁Bridges	-11621
▁isolated	-11622
▁Machine	-11623
▁photographs	-11624
▁skin	-11625
oned	-11626
uzz	-11627
▁pharm	-11628
ilo	-11629
▁fossil	-11630
▁Leipzig	-11631
▁Bark	-11632
inas	-11633
▁Imm	-11634
▁spin	-11635
▁flav	-11636
▁wingspan	-11637
etical	-11638
▁76	-11639
▁Crow	-11640
▁Continental	-11641
▁palace	-11642
▁moder	-11643
November	-11644
▁networks	-11645
publ	-11646
▁Kot	-11647
▁Cerambycidae	-11648
▁ol	-11649
▁Rican	-11650
▁opin	-11651
▁1965.	-11652
▁contribution	-11653
kl	-11654
▁od	-11655
▁Chad	-11656
▁1862	-11657
iploma	-11658
uca	-11659
▁Pé	-11660
▁1871	-11661
▁capture	-11662
aze	-11663
antage	-11664
▁Neu	-11665
▁discovery	-11666
▁Kang	-11667
▁eyes	-11668
▁tackles	-11669
uting	-11670
▁Lyon	-11671
▁Gy	-11672
▁Episode	-11673
▁Slav	-11674
arc	-11675
▁NRHP	-11676
▁Bennett	-11677
▁ver	-11678
rave	-11679
▁Circle	-11680
▁USS	-11681
jin	-11682
brev	-11683
▁lap	-11684
▁Total	-11685
▁Kenneth	-11686
eve	-11687
▁Soundtrack	-11688
▁Sind	-11689
ching	-11690
▁punk	-11691
esis	-11692
▁Month	-11693
▁scheme	-11694
▁Tampa	-11695
▁Zhang	-11696
DE	-11697
▁Ports	-11698
aram	-11699
▁clar	-11700
ischer	-11701
▁outstanding	-11702
▁Cyp	-11703
▁Clif	-11704
▁suicide	-11705
▁Yan	-11706
iae	-11707
▁Amb	-11708
▁uniform	-11709
▁plane	-11710
Af	-11711
rift	-11712
urated	-11713
▁Fellowship	-11714
▁Julian	-11715
brook	-11716
eti	-11717
uble	-11718
gart	-11719
case	-11720
▁boxer	-11721
iaz	-11722
riet	-11723
▁Dig	-11724
▁semifinals	-11725
entially	-11726
rise	-11727
uits	-11728
▁obl	-11729
▁78	-11730
▁Protection	-11731
▁dwell	-11732
▁1964.	-11733
abric	-11734
amental	-11735
▁Lex	-11736
▁Governorate	-11737
▁Still	-11738
▁Date	-11739
▁nickname	-11740
strument	-11741
▁Kaw	-11742
andal	-11743
eras	-11744
imi	-11745
▁Rice	-11746
▁CN	-11747
▁2018–19	-11748
▁wrestler	-11749
▁crosses	-11750
▁mythology	-11751
▁legislature	-11752
▁certified	-11753
▁centres	-11754
iza	-11755
iast	-11756
▁personality	-11757
▁consec	-11758
ación	-11759
▁Highland	-11760
▁trading	-11761
▁canoe	-11762
▁Ronald	-11763
quest	-11764
▁element	-11765
▁Herald	-11766
▁filmography	-11767
ucks	-11768
▁Emil	-11769
▁commanded	-11770
▁Marion	-11771
▁Lomb	-11772
UN	-11773
bank	-11774
▁institute	-11775
oux	-11776
▁experiences	-11777
▁MLAs	-11778
amics	-11779
▁(2017)	-11780
=9	-11781
athy	-11782
▁insurance	-11783
▁Matches	-11784
▁Henderson	-11785
erior	-11786
page	-11787
chid	-11788
▁Ya	-11789
gcolor	-11790
▁Louisville	-11791
▁electrical	-11792
▁Grammar	-11793
▁femin	-11794
▁legislation	-11795
ighthouse	-11796
▁Mis	-11797
▁Nikol	-11798
▁executives	-11799
▁filed	-11800
▁solar	-11801
▁Ci	-11802
–11	-11803
▁liv	-11804
▁Senegal	-11805
ucker	-11806
▁dress	-11807
▁1964,	-11808
▁(1,	-11809
▁accessible	-11810
▁northwestern	-11811
▁Todd	-11812
▁decre	-11813
ová	-11814
▁tru	-11815
▁Rodrig	-11816
▁Nancy	-11817
▁Grammy	-11818
▁missed	-11819
▁Belarusian	-11820
arag	-11821
▁Andhra	-11822
▁Iss	-11823
erstate	-11824
ullah	-11825
anus	-11826
▁Reed	-11827
▁hometown	-11828
▁Gand	-11829
▁Trip	-11830
▁www	-11831
stitutes	-11832
ño	-11833
▁cargo	-11834
▁Suffolk	-11835
▁Feder	-11836
▁Ferdin	-11837
LB	-11838
▁Ced	-11839
▁penalty	-11840
▁choir	-11841
▁(3)	-11842
▁Laboratory	-11843
▁Cai	-11844
▁Solomon	-11845
▁missions	-11846
▁Pent	-11847
▁withdrew	-11848
▁Hok	-11849
formed	-11850
▁Ole	-11851
▁Cameron	-11852
ederation	-11853
96	-11854
▁dual	-11855
▁dissolved	-11856
ska	-11857
imon	-11858
▁cattle	-11859
▁Dors	-11860
▁crowd	-11861
▁linear	-11862
▁modified	-11863
▁Diet	-11864
▁resemb	-11865
▁demon	-11866
▁spaces	-11867
▁Fisher	-11868
▁kit	-11869
▁1867	-11870
▁Silent	-11871
▁strength	-11872
▁characterized	-11873
▁markets	-11874
▁ste	-11875
▁Lif	-11876
▁skating	-11877
▁tourist	-11878
▁Dy	-11879
▁Unlike	-11880
▁explos	-11881
▁Northampton	-11882
Sw	-11883
amba	-11884
▁19.	-11885
▁alpine	-11886
▁credit	-11887
green	-11888
ificate	-11889
▁soul	-11890
ller	-11891
▁1966.	-11892
▁Cly	-11893
▁XV	-11894
iidae	-11895
▁25.	-11896
▁MC	-11897
▁Peng	-11898
▁Nem	-11899
▁skaters	-11900
inia	-11901
▁Weight	-11902
▁Marcus	-11903
▁Having	-11904
▁Eagle	-11905
▁really	-11906
▁farmers	-11907
▁Block	-11908
▁Canton	-11909
handed	-11910
▁Heights	-11911
▁Linn	-11912
▁Desert	-11913
▁$4	-11914
▁ideas	-11915
▁tenth	-11916
fol	-11917
▁Footnotes	-11918
▁(14	-11919
▁Expedition	-11920
▁Latvian	-11921
One	-11922
▁Cord	-11923
encers	-11924
▁Stakes	-11925
▁farming	-11926
▁Anat	-11927
▁guitarists	-11928
orous	-11929
▁Raw	-11930
▁hal	-11931
▁Academics	-11932
▁tend	-11933
estrian	-11934
chester	-11935
zon	-11936
adows	-11937
▁Brother	-11938
▁Qualification	-11939
▁1866	-11940
▁Armed	-11941
even	-11942
▁relative	-11943
▁attributed	-11944
▁Exhibition	-11945
apa	-11946
bern	-11947
▁save	-11948
▁proteins	-11949
▁RAF	-11950
ategory	-11951
uran	-11952
eplay	-11953
ieth	-11954
very	-11955
▁Activ	-11956
▁Heavy	-11957
amine	-11958
▁Qbug	-11959
▁Qbugbot	-11960
▁coalition	-11961
bel	-11962
izard	-11963
▁Brooks	-11964
▁transc	-11965
▁164	-11966
exp	-11967
onde	-11968
▁Led	-11969
▁Universe	-11970
▁cartoon	-11971
▁Hopkins	-11972
inction	-11973
ettes	-11974
Bar	-11975
▁dub	-11976
▁Aster	-11977
▁Byzantine	-11978
▁perhaps	-11979
▁Cardiff	-11980
▁assass	-11981
▁patrol	-11982
▁Kate	-11983
stead	-11984
▁Amphib	-11985
▁Stra	-11986
▁disbanded	-11987
ashed	-11988
▁expression	-11989
IL	-11990
▁Sporting	-11991
97	-11992
▁beating	-11993
kw	-11994
▁spell	-11995
▁sailing	-11996
▁sessions	-11997
▁generals	-11998
▁note	-11999
▁drop	-12000
apo	-12001
▁option	-12002
98	-12003
▁worship	-12004
olition	-12005
▁faith	-12006
▁22.	-12007
▁storm	-12008
▁kilometres	-12009
▁Rib	-12010
▁Pall	-12011
▁Complex	-12012
▁motorcycle	-12013
lane	-12014
▁McD	-12015
▁23.	-12016
math	-12017
▁formula	-12018
▁variant	-12019
▁responsibility	-12020
▁vary	-12021
▁Stories	-12022
core	-12023
▁traveled	-12024
▁comedian	-12025
▁Recordings	-12026
▁mir	-12027
ancers	-12028
▁Concert	-12029
▁check	-12030
▁updated	-12031
Be	-12032
▁Forum	-12033
orted	-12034
▁archaeological	-12035
fi	-12036
▁Sons	-12037
▁Citiz	-12038
▁Fal	-12039
▁remember	-12040
▁1965,	-12041
iffe	-12042
▁1840	-12043
▁compounds	-12044
▁spir	-12045
▁rocks	-12046
▁temples	-12047
▁spending	-12048
▁assists	-12049
iliary	-12050
▁raid	-12051
▁Lines	-12052
▁skiing	-12053
▁Ś	-12054
▁Aaron	-12055
▁sisters	-12056
▁Edu	-12057
▁arrangements	-12058
▁67	-12059
▁Version	-12060
▁injuries	-12061
▁Oct	-12062
endra	-12063
▁Lie	-12064
▁tenor	-12065
ushed	-12066
▁altitude	-12067
anj	-12068
▁participants	-12069
▁Leop	-12070
▁py	-12071
ushing	-12072
ompass	-12073
▁styles	-12074
rehensive	-12075
▁bit	-12076
▁Gustav	-12077
▁difference	-12078
▁(12	-12079
▁Study	-12080
▁21.	-12081
▁width	-12082
▁600	-12083
▁highlight	-12084
inyl	-12085
▁adding	-12086
MD	-12087
▁Standings	-12088
▁°	-12089
ández	-12090
▁Joint	-12091
etown	-12092
▁Alc	-12093
▁Owen	-12094
▁ESP	-12095
▁Reyn	-12096
▁Cardinal	-12097
▁thesis	-12098
▁interpret	-12099
▁1966,	-12100
▁Oz	-12101
quet	-12102
▁Angola	-12103
▁Herm	-12104
nez	-12105
▁giant	-12106
▁designers	-12107
-198	-12108
▁earthquake	-12109
▁Colin	-12110
▁165	-12111
feat	-12112
▁Vale	-12113
▁convention	-12114
▁geomet	-12115
▁Stevens	-12116
aled	-12117
igar	-12118
▁Won	-12119
▁gate	-12120
uable	-12121
▁Silva	-12122
▁prof	-12123
amas	-12124
▁fill	-12125
▁sung	-12126
▁evolution	-12127
▁cool	-12128
▁freedom	-12129
▁educators	-12130
▁Ply	-12131
▁Photo	-12132
tone	-12133
▁Archaeological	-12134
▁Based	-12135
▁1960,	-12136
▁extends	-12137
▁Memphis	-12138
▁Located	-12139
▁1944,	-12140
▁1995)	-12141
▁(2018)	-12142
▁Sag	-12143
▁Vall	-12144
▁Guatemala	-12145
▁fifteen	-12146
▁Ign	-12147
▁Alpine	-12148
▁(1999)	-12149
▁Tree	-12150
ewhere	-12151
third	-12152
▁demonst	-12153
▁USL	-12154
▁none	-12155
▁Dunc	-12156
▁termin	-12157
▁moths	-12158
assic	-12159
▁Taiwanese	-12160
▁components	-12161
▁Iraqi	-12162
oyal	-12163
Station	-12164
▁rib	-12165
▁Maurit	-12166
▁1997)	-12167
arts	-12168
▁63	-12169
levard	-12170
▁struck	-12171
icul	-12172
namese	-12173
abilities	-12174
▁Lip	-12175
▁movements	-12176
▁Cort	-12177
▁Lucas	-12178
▁inherited	-12179
!"	-12180
▁Fay	-12181
▁absor	-12182
▁evening	-12183
▁Protestant	-12184
▁1869	-12185
▁Naples	-12186
▁Fiji	-12187
▁uncertain	-12188
▁facing	-12189
▁aspects	-12190
jord	-12191
hey	-12192
.),	-12193
▁horses	-12194
▁lowest	-12195
▁processing	-12196
▁Lub	-12197
▁Synopsis	-12198
▁athletic	-12199
▁Gul	-12200
▁crash	-12201
France	-12202
agement	-12203
▁diplomatic	-12204
▁Ellis	-12205
▁pink	-12206
▁Zar	-12207
▁Initially	-12208
▁Garc	-12209
lifting	-12210
▁maintenance	-12211
▁calendar	-12212
uchy	-12213
polit	-12214
▁Astron	-12215
▁commerc	-12216
▁predecessor	-12217
▁amongst	-12218
▁negative	-12219
aea	-12220
▁rend	-12221
▁Helsinki	-12222
dc	-12223
▁recognised	-12224
▁Glass	-12225
quin	-12226
▁DNA	-12227
▁Biology	-12228
.;	-12229
▁Coaching	-12230
thouse	-12231
▁quad	-12232
▁Eugene	-12233
▁values	-12234
SU	-12235
ellion	-12236
▁Woods	-12237
▁Kras	-12238
html	-12239
erie	-12240
▁173	-12241
▁shut	-12242
▁grades	-12243
▁Albany	-12244
▁Iz	-12245
ounced	-12246
▁Manila	-12247
▁Christians	-12248
lec	-12249
▁interv	-12250
onso	-12251
▁Double	-12252
▁AB	-12253
February	-12254
▁venture	-12255
▁Pick	-12256
▁priests	-12257
ipedia	-12258
▁Bryan	-12259
pear	-12260
▁Belfast	-12261
sted	-12262
–187	-12263
▁eggs	-12264
▁portrayed	-12265
▁Fir	-12266
▁Episodes	-12267
▁na	-12268
▁provinces	-12269
▁brew	-12270
▁continuing	-12271
▁molecular	-12272
▁Pab	-12273
andan	-12274
osing	-12275
▁trumpet	-12276
isen	-12277
▁ninet	-12278
▁Richardson	-12279
▁chron	-12280
▁arrival	-12281
▁Patric	-12282
▁Simpson	-12283
▁Lisa	-12284
▁mathematician	-12285
▁Notre	-12286
essa	-12287
ști	-12288
vet	-12289
▁24.	-12290
iatric	-12291
▁1960.	-12292
▁Room	-12293
oney	-12294
▁vent	-12295
▁Muslims	-12296
CO	-12297
aru	-12298
acuse	-12299
▁fil	-12300
ups	-12301
▁Want	-12302
pm	-12303
aton	-12304
ourse	-12305
▁fighter	-12306
▁reduce	-12307
alom	-12308
efield	-12309
▁doub	-12310
▁asteroid	-12311
SF	-12312
rust	-12313
▁Pere	-12314
▁sailors	-12315
▁Rao	-12316
▁headquartered	-12317
▁encompass	-12318
▁essay	-12319
ding	-12320
▁tunnel	-12321
dan	-12322
oons	-12323
▁Host	-12324
▁BM	-12325
ricted	-12326
▁brain	-12327
▁Thus	-12328
▁Wool	-12329
▁jurisdiction	-12330
uin	-12331
▁amp	-12332
leigh	-12333
▁rar	-12334
▁witness	-12335
othes	-12336
hurst	-12337
▁keyboard	-12338
▁Lars	-12339
▁download	-12340
▁locomotive	-12341
▁1962.	-12342
▁Ig	-12343
▁AI	-12344
▁raise	-12345
▁Powell	-12346
▁airline	-12347
▁indigenous	-12348
▁supposed	-12349
▁finance	-12350
▁Haven	-12351
▁(13	-12352
making	-12353
▁Founded	-12354
▁72	-12355
alifax	-12356
onies	-12357
öm	-12358
two	-12359
▁eligible	-12360
▁Worcester	-12361
▁screenwriters	-12362
▁snails	-12363
uke	-12364
▁moment	-12365
minute	-12366
ovel	-12367
▁experienced	-12368
Pr	-12369
ilda	-12370
▁crisis	-12371
▁chance	-12372
▁challenge	-12373
▁maintain	-12374
▁Change	-12375
▁Nordic	-12376
▁hy	-12377
▁charter	-12378
▁Travel	-12379
▁Andrea	-12380
▁Preston	-12381
▁mal	-12382
▁exists	-12383
ridae	-12384
ivian	-12385
▁Justin	-12386
▁Canoe	-12387
▁Qatar	-12388
esch	-12389
▁cable	-12390
aden	-12391
▁1859	-12392
▁Bohem	-12393
▁councillors	-12394
▁Caroline	-12395
urse	-12396
▁Bond	-12397
iler	-12398
▁Julia	-12399
forcement	-12400
ych	-12401
▁communications	-12402
▁157	-12403
▁extremely	-12404
▁picked	-12405
▁Marathon	-12406
▁Intelligence	-12407
▁diseases	-12408
▁Leslie	-12409
upt	-12410
▁1994)	-12411
▁breast	-12412
▁unions	-12413
▁reun	-12414
▁Darl	-12415
▁cathedral	-12416
▁Seminary	-12417
▁declined	-12418
▁Chemical	-12419
▁Rally	-12420
▁Gur	-12421
▁Lynn	-12422
imer	-12423
▁Half	-12424
▁Canyon	-12425
▁1996)	-12426
Nor	-12427
▁meetings	-12428
/1	-12429
▁departure	-12430
▁Yank	-12431
▁returns	-12432
▁Businesspeople	-12433
▁Piano	-12434
▁capable	-12435
isi	-12436
rea	-12437
▁Samp	-12438
▁wave	-12439
unners	-12440
rs	-12441
▁cyl	-12442
▁copy	-12443
▁Marin	-12444
Gu	-12445
▁77	-12446
▁ster	-12447
▁Carlo	-12448
▁habitats	-12449
afe	-12450
orey	-12451
▁Syracuse	-12452
▁undergraduate	-12453
▁attracted	-12454
pread	-12455
▁bell	-12456
▁VII	-12457
▁decorated	-12458
▁distribut	-12459
▁speaker	-12460
▁external	-12461
▁Rost	-12462
▁valid	-12463
lette	-12464
pop	-12465
▁Orland	-12466
▁Estate	-12467
▁cul	-12468
▁mini	-12469
▁1857	-12470
▁defend	-12471
▁sciences	-12472
ingle	-12473
▁Warriors	-12474
▁criticism	-12475
▁context	-12476
▁Advanced	-12477
▁fur	-12478
▁gram	-12479
mal	-12480
▁8:	-12481
▁Strat	-12482
▁1998)	-12483
▁gay	-12484
▁Qing	-12485
▁AFL	-12486
▁Prof	-12487
▁murdered	-12488
▁marg	-12489
udden	-12490
▁Taj	-12491
▁switched	-12492
▁1999)	-12493
idespread	-12494
▁originated	-12495
▁amb	-12496
▁Zagreb	-12497
icken	-12498
▁Osaka	-12499
▁Worth	-12500
▁pageant	-12501
▁Fraser	-12502
▁component	-12503
▁Link	-12504
Conn	-12505
▁Oce	-12506
=|	-12507
▁MTV	-12508
▁Mats	-12509
PR	-12510
▁Kiss	-12511
iad	-12512
▁10,000	-12513
▁Case	-12514
▁nominee	-12515
▁Suk	-12516
▁frequency	-12517
rase	-12518
▁Picture	-12519
▁roots	-12520
▁1820	-12521
lip	-12522
▁1963,	-12523
▁Celtic	-12524
▁Goals	-12525
▁statement	-12526
▁departments	-12527
▁HD	-12528
▁fired	-12529
utta	-12530
▁Bend	-12531
▁fled	-12532
▁1,000	-12533
▁Liu	-12534
▁Discovery	-12535
▁Dew	-12536
▁1993)	-12537
▁Heath	-12538
▁discontinued	-12539
▁moist	-12540
ité	-12541
este	-12542
▁Bloom	-12543
▁Angels	-12544
▁partially	-12545
▁columns	-12546
igraph	-12547
▁CC	-12548
PC	-12549
▁#1	-12550
fast	-12551
▁adults	-12552
▁Icelandic	-12553
▁kingdom	-12554
gio	-12555
▁biology	-12556
iary	-12557
▁Bac	-12558
▁−	-12559
gorith	-12560
▁Harper	-12561
ophyll	-12562
▁processes	-12563
▁PGA	-12564
▁fasc	-12565
▁exclusively	-12566
▁2000)	-12567
▁Plymouth	-12568
/19	-12569
▁concentration	-12570
▁Benedict	-12571
▁demand	-12572
cons	-12573
▁26.	-12574
▁61	-12575
▁researchers	-12576
mother	-12577
chel	-12578
▁Duncan	-12579
ifted	-12580
▁assisted	-12581
▁rejected	-12582
▁Apoll	-12583
ener	-12584
▁Halifax	-12585
▁ment	-12586
▁Pract	-12587
▁1992)	-12588
▁Springfield	-12589
▁Hert	-12590
▁Producer	-12591
iston	-12592
olen	-12593
▁Scout	-12594
▁partly	-12595
–186	-12596
ов	-12597
▁1963.	-12598
▁Hero	-12599
ermo	-12600
phab	-12601
▁translator	-12602
▁accord	-12603
adier	-12604
▁fitted	-12605
▁Viol	-12606
▁1-	-12607
iott	-12608
▁behalf	-12609
▁Brom	-12610
▁prest	-12611
arked	-12612
oard	-12613
▁pole	-12614
epage	-12615
▁pron	-12616
▁Planning	-12617
▁concerns	-12618
▁Ferdinand	-12619
but	-12620
▁Campus	-12621
apters	-12622
▁Mohammad	-12623
▁Kuwa	-12624
record	-12625
▁hen	-12626
▁27.	-12627
▁Shakes	-12628
▁goalkeepers	-12629
▁defunct	-12630
ewell	-12631
▁1962,	-12632
▁Jas	-12633
▁Sed	-12634
▁Porter	-12635
▁AllMusic	-12636
arry	-12637
▁administered	-12638
oyage	-12639
▁Vietnamese	-12640
▁sequel	-12641
uxiliary	-12642
▁encl	-12643
▁62	-12644
▁pursue	-12645
▁Byr	-12646
▁tribes	-12647
▁percentage	-12648
▁medallists	-12649
▁academics	-12650
▁monuments	-12651
▁Corp	-12652
etz	-12653
▁ocean	-12654
▁SO	-12655
▁pictures	-12656
▁Ō	-12657
▁Miles	-12658
▁Liberation	-12659
▁Laz	-12660
uh	-12661
▁Aberdeen	-12662
▁(1998)	-12663
▁Fung	-12664
▁losses	-12665
▁strongly	-12666
anch	-12667
▁Break	-12668
▁Rosa	-12669
▁Did	-12670
▁turb	-12671
▁Money	-12672
▁Carroll	-12673
ocratic	-12674
vest	-12675
▁Even	-12676
▁enh	-12677
eason	-12678
▁Cun	-12679
asium	-12680
▁Tunisia	-12681
utical	-12682
ricks	-12683
▁Article	-12684
wal	-12685
▁diocese	-12686
▁mall	-12687
▁rising	-12688
▁studios	-12689
▁monthly	-12690
▁Eff	-12691
▁travelled	-12692
bin	-12693
ifinal	-12694
▁Evangel	-12695
▁Lay	-12696
▁rice	-12697
Com	-12698
atum	-12699
▁repr	-12700
san	-12701
▁Testament	-12702
▁hurd	-12703
▁Chapter	-12704
mor	-12705
▁colony	-12706
▁171	-12707
French	-12708
▁Shortly	-12709
▁researcher	-12710
▁Never	-12711
▁reorgan	-12712
▁integrated	-12713
umer	-12714
▁Falk	-12715
▁Wikipedia	-12716
isle	-12717
▁Deg	-12718
netic	-12719
pedo	-12720
▁mastering	-12721
▁qualifier	-12722
▁solution	-12723
▁Hugo	-12724
▁für	-12725
▁Curtis	-12726
ophon	-12727
▁Sard	-12728
▁Volunte	-12729
▁Mud	-12730
▁phone	-12731
emi	-12732
▁1961,	-12733
▁Wesley	-12734
▁96	-12735
akov	-12736
▁Fresh	-12737
▁Emirates	-12738
▁Tiger	-12739
itarian	-12740
tel	-12741
▁initiative	-12742
▁orb	-12743
▁spiritual	-12744
▁Classification	-12745
called	-12746
Austral	-12747
▁Tracks	-12748
gebra	-12749
▁Advisory	-12750
▁suggests	-12751
▁Brent	-12752
▁devoted	-12753
▁reputation	-12754
▁requirements	-12755
▁1990)	-12756
▁Kolk	-12757
▁Confederate	-12758
▁Champ	-12759
▁Bailey	-12760
vor	-12761
iffer	-12762
▁Milton	-12763
▁Treaty	-12764
95	-12765
▁Jorge	-12766
▁CB	-12767
▁Lal	-12768
▁Recurring	-12769
▁Need	-12770
▁Christianity	-12771
tures	-12772
▁criticized	-12773
▁carries	-12774
▁Cod	-12775
▁employment	-12776
hour	-12777
▁Virt	-12778
▁ty	-12779
went	-12780
▁sket	-12781
opened	-12782
▁Away	-12783
▁Moham	-12784
She	-12785
▁Monday	-12786
▁predominantly	-12787
▁Knock	-12788
http	-12789
▁picks	-12790
▁(1997)	-12791
▁Rowing	-12792
▁Governors	-12793
▁consultant	-12794
▁Reid	-12795
intendent	-12796
arius	-12797
▁writes	-12798
▁extensively	-12799
irie	-12800
▁Directors	-12801
▁Where	-12802
▁Transit	-12803
▁Sym	-12804
▁Mom	-12805
eppe	-12806
▁Gó	-12807
▁Maid	-12808
▁→	-12809
▁Drum	-12810
▁switch	-12811
iak	-12812
olve	-12813
ountain	-12814
▁Gian	-12815
▁(2019)	-12816
gae	-12817
disc	-12818
▁ERA	-12819
▁Francesco	-12820
▁Interior	-12821
▁Leone	-12822
▁commenced	-12823
icing	-12824
iking	-12825
ochem	-12826
▁operational	-12827
isan	-12828
▁imag	-12829
▁Nou	-12830
0).	-12831
▁Heinrich	-12832
alla	-12833
▁secure	-12834
▁Monument	-12835
▁Lak	-12836
▁Rhine	-12837
▁Holmes	-12838
riot	-12839
piece	-12840
▁occasion	-12841
▁Palm	-12842
▁thousand	-12843
icit	-12844
▁Religion	-12845
▁Ernst	-12846
▁unders	-12847
▁wat	-12848
▁perfect	-12849
▁canal	-12850
▁Priv	-12851
iens	-12852
▁Koh	-12853
▁Alps	-12854
▁Triple	-12855
ennes	-12856
▁1948,	-12857
ambers	-12858
▁1991)	-12859
1-	-12860
▁specimen	-12861
▁Yemen	-12862
fluence	-12863
orst	-12864
▁Å	-12865
gang	-12866
▁Marian	-12867
rack	-12868
▁Sullivan	-12869
▁Hus	-12870
omic	-12871
Hung	-12872
spe	-12873
▁Lé	-12874
▁Challenger	-12875
▁accur	-12876
▁changing	-12877
▁sanct	-12878
▁vinyl	-12879
▁Mā	-12880
▁conj	-12881
▁rowers	-12882
▁assess	-12883
▁1944.	-12884
▁fra	-12885
▁turning	-12886
▁Shakespear	-12887
▁controversy	-12888
▁Glenn	-12889
ahu	-12890
▁Yar	-12891
▁Geneva	-12892
ilus	-12893
▁behavior	-12894
▁Moroccan	-12895
▁1961.	-12896
▁playwright	-12897
▁wel	-12898
▁crimes	-12899
▁Dud	-12900
▁Windsor	-12901
enge	-12902
▁colors	-12903
▁Bottom	-12904
▁Wit	-12905
▁Panthers	-12906
▁88	-12907
entry	-12908
▁buy	-12909
▁1946.	-12910
▁Gibson	-12911
▁Recre	-12912
icester	-12913
▁PlayStation	-12914
weep	-12915
▁displayed	-12916
▁tribute	-12917
▁servant	-12918
▁Claude	-12919
▁Bever	-12920
▁Linda	-12921
▁1946,	-12922
▁severe	-12923
▁graphic	-12924
▁Self	-12925
▁placing	-12926
▁Série	-12927
▁Jiang	-12928
itzer	-12929
▁Eb	-12930
âte	-12931
▁Mü	-12932
▁mystery	-12933
heless	-12934
anie	-12935
▁marks	-12936
▁Hack	-12937
Ab	-12938
▁Veter	-12939
▁Animal	-12940
▁slopes	-12941
rí	-12942
ipes	-12943
▁pub	-12944
▁León	-12945
▁Lancaster	-12946
▁Newspapers	-12947
▁Emmy	-12948
▁spl	-12949
▁Basin	-12950
jani	-12951
▁LA	-12952
ref	-12953
▁characteristics	-12954
▁163	-12955
▁trials	-12956
▁clinical	-12957
▁minimum	-12958
osc	-12959
▁accounts	-12960
▁Libert	-12961
▁connect	-12962
▁cave	-12963
▁Estab	-12964
▁Chemistry	-12965
▁Manor	-12966
▁Ulster	-12967
▁IN	-12968
▁liquid	-12969
▁Blake	-12970
▁Derbyshire	-12971
month	-12972
▁Birth	-12973
▁vel	-12974
def	-12975
▁partners	-12976
▁suffering	-12977
ilty	-12978
▁1830	-12979
▁Kyiv	-12980
▁theolog	-12981
▁Pine	-12982
▁Brighton	-12983
▁Cust	-12984
▁closure	-12985
▁Emma	-12986
▁Orlando	-12987
▁marathon	-12988
▁Waters	-12989
▁achieve	-12990
PP	-12991
▁Built	-12992
▁MD	-12993
andi	-12994
▁Napole	-12995
oche	-12996
anya	-12997
ooter	-12998
▁nothing	-12999
bred	-13000
Car	-13001
tre	-13002
▁Harbor	-13003
ikk	-13004
▁SEA	-13005
▁cod	-13006
aneous	-13007
▁Cram	-13008
grim	-13009
atham	-13010
▁Sche	-13011
▁provision	-13012
▁Pom	-13013
▁Lap	-13014
▁Principal	-13015
:1	-13016
▁Take	-13017
▁Meet	-13018
▁Northwestern	-13019
▁ibn	-13020
▁sudden	-13021
porter	-13022
▁1947,	-13023
mic	-13024
▁Nun	-13025
▁tub	-13026
▁clothing	-13027
asse	-13028
▁aimed	-13029
What	-13030
▁loaned	-13031
▁),	-13032
rights	-13033
oves	-13034
▁Poly	-13035
▁Marco	-13036
▁García	-13037
angerous	-13038
Re	-13039
makers	-13040
ipel	-13041
▁widespread	-13042
▁significantly	-13043
▁analy	-13044
game	-13045
▁sitting	-13046
▁Graduate	-13047
▁whereas	-13048
▁Ein	-13049
acles	-13050
dep	-13051
▁Publishers	-13052
▁periods	-13053
▁las	-13054
▁Paraguay	-13055
▁Certifications	-13056
▁1940,	-13057
▁relegation	-13058
named	-13059
▁Nine	-13060
▁journalism	-13061
▁Ming	-13062
▁Johns	-13063
▁magnitude	-13064
▁Sold	-13065
wana	-13066
▁Wend	-13067
▁Examp	-13068
▁Cheng	-13069
▁Capitol	-13070
kinson	-13071
▁bringing	-13072
▁sailed	-13073
▁elector	-13074
su	-13075
▁1989)	-13076
onal	-13077
▁Botan	-13078
▁Officers	-13079
sub	-13080
▁1948.	-13081
▁emergency	-13082
▁Speaker	-13083
▁associations	-13084
▁adopt	-13085
chaft	-13086
▁understanding	-13087
▁nam	-13088
▁Pirates	-13089
▁XX	-13090
ères	-13091
▁involvement	-13092
▁strategy	-13093
▁Gene	-13094
lights	-13095
▁resid	-13096
▁Presidential	-13097
NFL	-13098
harm	-13099
▁Baden	-13100
▁alcohol	-13101
▁undert	-13102
▁125	-13103
ilation	-13104
▁reservoir	-13105
▁Bihar	-13106
▁Engineer	-13107
▁resolution	-13108
▁Hurric	-13109
▁Hits	-13110
▁powers	-13111
alon	-13112
imar	-13113
▁Rid	-13114
▁ESPN	-13115
irus	-13116
racts	-13117
ritz	-13118
▁Typ	-13119
▁Pharm	-13120
etes	-13121
▁worker	-13122
▁posthum	-13123
▁Kashmir	-13124
ocket	-13125
▁85	-13126
▁shops	-13127
▁Torn	-13128
▁2–1	-13129
iller	-13130
eer	-13131
▁Armstrong	-13132
▁172	-13133
▁Rw	-13134
HC	-13135
▁Ley	-13136
role	-13137
▁secured	-13138
▁Landmarks	-13139
▁Holl	-13140
▁Bros	-13141
▁Kurt	-13142
pert	-13143
▁atmosph	-13144
▁Para	-13145
rous	-13146
▁finding	-13147
▁Streets	-13148
▁Chiefs	-13149
▁Restaur	-13150
▁Kosovo	-13151
▁GT	-13152
▁drugs	-13153
▁Nicol	-13154
uga	-13155
horse	-13156
▁Doug	-13157
▁Clara	-13158
lik	-13159
ipei	-13160
▁mit	-13161
▁Bradley	-13162
ovsk	-13163
▁Flower	-13164
▁tool	-13165
▁masculine	-13166
▁5-	-13167
▁recommended	-13168
▁1959.	-13169
▁streams	-13170
▁Julius	-13171
ahr	-13172
▁asc	-13173
▁Excell	-13174
▁subtropical	-13175
▁pianists	-13176
▁Boulevard	-13177
▁happened	-13178
IF	-13179
▁alternate	-13180
▁easy	-13181
mail	-13182
dong	-13183
ints	-13184
agers	-13185
post	-13186
▁Interstate	-13187
ede	-13188
▁Credits	-13189
enic	-13190
▁28.	-13191
▁Dragons	-13192
berger	-13193
▁Santo	-13194
▁describe	-13195
drama	-13196
yar	-13197
▁depend	-13198
▁Electronic	-13199
▁SM	-13200
▁Basil	-13201
▁advisor	-13202
▁1956,	-13203
▁Baroque	-13204
▁Polyt	-13205
▁Kul	-13206
▁Ens	-13207
▁110	-13208
▁Namibia	-13209
▁Integ	-13210
▁Rajas	-13211
▁drink	-13212
▁reviewed	-13213
▁Starting	-13214
▁apartment	-13215
▁AT	-13216
▁frequent	-13217
arin	-13218
▁Trump	-13219
annon	-13220
▁Cret	-13221
lla	-13222
▁Wander	-13223
▁wealthy	-13224
▁Hydro	-13225
▁Shim	-13226
hend	-13227
▁why	-13228
▁Semifinals	-13229
wara	-13230
▁reportedly	-13231
▁1988)	-13232
dess	-13233
▁Cyclists	-13234
atiya	-13235
▁tip	-13236
";	-13237
▁Twin	-13238
rooms	-13239
▁Singer	-13240
agonist	-13241
▁Robertson	-13242
▁medalist	-13243
Roman	-13244
▁Monroe	-13245
▁upgrad	-13246
▁mental	-13247
▁Manufacturing	-13248
tein	-13249
▁Wick	-13250
▁Honorary	-13251
▁WA	-13252
▁affiliate	-13253
▁1956.	-13254
Big	-13255
▁Roberto	-13256
▁Czechoslovakia	-13257
uncredited	-13258
▁Cycling	-13259
▁resort	-13260
▁Kenny	-13261
▁Sib	-13262
▁Kok	-13263
▁12-	-13264
▁Raja	-13265
▁ruler	-13266
▁strip	-13267
▁Kannada	-13268
kok	-13269
▁dialect	-13270
▁interviews	-13271
hips	-13272
pose	-13273
▁Observatory	-13274
67	-13275
▁1958,	-13276
▁helic	-13277
▁1848	-13278
eapolis	-13279
▁Jacksonville	-13280
otta	-13281
ribute	-13282
▁approval	-13283
▁professionally	-13284
▁1939,	-13285
▁Buk	-13286
▁comprising	-13287
▁revenue	-13288
▁Bangladeshi	-13289
▁Hyp	-13290
▁arena	-13291
rage	-13292
▁Doll	-13293
▁Adrian	-13294
stitutional	-13295
books	-13296
▁forty	-13297
▁Leicester	-13298
▁bench	-13299
▁hospitals	-13300
▁Come	-13301
▁dorsal	-13302
▁Tehran	-13303
▁Rein	-13304
▁orchest	-13305
▁1957.	-13306
▁respond	-13307
▁indie	-13308
▁Ballet	-13309
▁Chennai	-13310
▁Heaven	-13311
▁Retrieved	-13312
ál	-13313
eled	-13314
▁fee	-13315
▁Gujarat	-13316
▁naming	-13317
▁Bent	-13318
alore	-13319
▁Gan	-13320
▁archive	-13321
▁Edgar	-13322
▁origins	-13323
▁1858	-13324
▁Indigenous	-13325
▁Đ	-13326
▁2017–18	-13327
Cent	-13328
▁€	-13329
▁abbrev	-13330
▁segments	-13331
▁populations	-13332
ombo	-13333
āb	-13334
▁Dart	-13335
▁hat	-13336
▁Elis	-13337
▁Colony	-13338
olan	-13339
▁programmes	-13340
▁texts	-13341
▁impress	-13342
mag	-13343
OL	-13344
▁anthrop	-13345
oping	-13346
▁editorial	-13347
▁Ferg	-13348
▁Siles	-13349
▁assets	-13350
nut	-13351
icular	-13352
▁1958.	-13353
▁ranging	-13354
▁specialist	-13355
▁Hort	-13356
▁customers	-13357
▁mounted	-13358
ahi	-13359
wyn	-13360
▁golden	-13361
▁proport	-13362
stadt	-13363
▁philosopher	-13364
iec	-13365
▁config	-13366
nica	-13367
▁wickets	-13368
▁belief	-13369
▁thousands	-13370
▁1942,	-13371
othe	-13372
▁Faith	-13373
▁Premi	-13374
uven	-13375
▁governing	-13376
▁Kolkata	-13377
north	-13378
erner	-13379
atinum	-13380
▁Sculpt	-13381
▁Midlands	-13382
▁UA	-13383
▁Cheshire	-13384
▁og	-13385
▁Watch	-13386
▁plain	-13387
▁Lund	-13388
nian	-13389
▁1950,	-13390
▁Burton	-13391
ako	-13392
▁rounded	-13393
▁mode	-13394
▁Letters	-13395
▁Miy	-13396
▁1854	-13397
iane	-13398
▁practices	-13399
▁gather	-13400
BN	-13401
surname	-13402
upe	-13403
▁162	-13404
▁Senators	-13405
▁Tort	-13406
church	-13407
▁animation	-13408
KA	-13409
rison	-13410
▁WW	-13411
wen	-13412
▁Caled	-13413
▁tempor	-13414
appa	-13415
USA	-13416
▁74	-13417
woman	-13418
▁Berks	-13419
agram	-13420
▁Providence	-13421
▁Dag	-13422
▁stable	-13423
▁spelled	-13424
▁ride	-13425
rike	-13426
hausen	-13427
▁1.5	-13428
▁Lyric	-13429
▁Cool	-13430
ecca	-13431
▁Harbour	-13432
utz	-13433
▁Wins	-13434
▁Carm	-13435
65	-13436
▁(11	-13437
aurus	-13438
▁Nurs	-13439
isf	-13440
▁believe	-13441
obi	-13442
▁Taipei	-13443
▁broadcasts	-13444
bey	-13445
arten	-13446
▁Anto	-13447
▁coat	-13448
▁clock	-13449
▁Boxing	-13450
▁Middlesex	-13451
▁Jennifer	-13452
▁1959,	-13453
▁sharp	-13454
▁drew	-13455
titled	-13456
▁Composition	-13457
▁(1996)	-13458
enza	-13459
▁bassist	-13460
▁controversial	-13461
mos	-13462
▁Georges	-13463
istle	-13464
world	-13465
▁Roos	-13466
▁della	-13467
omical	-13468
▁Alg	-13469
▁warn	-13470
enzie	-13471
▁opponent	-13472
▁outbreak	-13473
▁battles	-13474
ulner	-13475
oots	-13476
▁herb	-13477
▁Southwest	-13478
▁promin	-13479
▁Raiders	-13480
▁Lj	-13481
zburg	-13482
▁torn	-13483
wid	-13484
▁Bast	-13485
▁tests	-13486
ieties	-13487
▁Americas	-13488
ège	-13489
▁Zen	-13490
▁performers	-13491
▁Johan	-13492
▁huge	-13493
ilian	-13494
▁mechanical	-13495
RE	-13496
▁Arsen	-13497
▁clay	-13498
▁Tin	-13499
▁promoting	-13500
▁Hern	-13501
▁flank	-13502
rique	-13503
▁electricity	-13504
▁birthday	-13505
ybrid	-13506
▁mathematicians	-13507
archy	-13508
▁symb	-13509
▁Mater	-13510
uti	-13511
▁Vocals	-13512
mons	-13513
▁thereafter	-13514
▁Barnes	-13515
▁1957,	-13516
oprano	-13517
▁performer	-13518
▁Candidates	-13519
▁Fuj	-13520
2-	-13521
atas	-13522
▁1941,	-13523
▁Wings	-13524
▁bankrupt	-13525
▁Gav	-13526
▁Berm	-13527
▁Fighting	-13528
.'	-13529
▁Rafael	-13530
▁resumed	-13531
▁voters	-13532
▁Baj	-13533
▁vision	-13534
▁personalities	-13535
▁Minneapolis	-13536
▁Dale	-13537
▁inscription	-13538
atu	-13539
▁orbit	-13540
▁Languages	-13541
▁Brah	-13542
▁1943,	-13543
okes	-13544
▁ruling	-13545
▁chore	-13546
▁scores	-13547
▁bordered	-13548
▁colonel	-13549
▁Dow	-13550
▁Macedonian	-13551
▁thirteen	-13552
▁dismissed	-13553
▁Rup	-13554
▁Koch	-13555
▁sculptors	-13556
▁Geographic	-13557
▁Gazette	-13558
▁costs	-13559
▁Ellen	-13560
▁encounter	-13561
▁internet	-13562
group	-13563
▁Crawford	-13564
onc	-13565
itic	-13566
▁rid	-13567
▁id	-13568
ieri	-13569
asht	-13570
▁Charleston	-13571
▁Thunder	-13572
▁surr	-13573
▁Khor	-13574
omotive	-13575
chin	-13576
▁Nass	-13577
▁Architects	-13578
▁Search	-13579
▁Habit	-13580
▁CON	-13581
▁Inspector	-13582
▁micro	-13583
▁developer	-13584
▁2021–22	-13585
unar	-13586
▁Lima	-13587
▁demonstr	-13588
▁funeral	-13589
etics	-13590
▁wedding	-13591
▁weekend	-13592
▁Fur	-13593
▁Basel	-13594
ād	-13595
▁corresponding	-13596
▁Tyler	-13597
▁spoke	-13598
▁(1995)	-13599
▁achievements	-13600
erville	-13601
▁renowned	-13602
gs	-13603
▁1987)	-13604
▁Bea	-13605
▁ca	-13606
▁agents	-13607
chron	-13608
oys	-13609
▁speak	-13610
▁ign	-13611
▁fran	-13612
▁2001)	-13613
▁Shire	-13614
▁1949,	-13615
▁Emily	-13616
▁questions	-13617
▁insects	-13618
▁sugar	-13619
tty	-13620
▁Sent	-13621
”.	-13622
▁Cum	-13623
▁Eup	-13624
▁badminton	-13625
▁Illust	-13626
▁Shan	-13627
erek	-13628
▁tourism	-13629
shan	-13630
▁organic	-13631
▁Toledo	-13632
▁Ath	-13633
▁Vijay	-13634
NR	-13635
▁depending	-13636
ellar	-13637
▁Wednes	-13638
▁Autonomous	-13639
▁McDonald	-13640
▁Cut	-13641
had	-13642
agne	-13643
utsal	-13644
▁output	-13645
izon	-13646
▁EU	-13647
using	-13648
▁1–0	-13649
▁safe	-13650
▁tallest	-13651
▁partial	-13652
▁1856	-13653
▁Arms	-13654
▁closing	-13655
▁rises	-13656
00.	-13657
▁monitor	-13658
▁1855	-13659
▁algorith	-13660
▁enjoyed	-13661
▁conferences	-13662
▁99	-13663
▁Pione	-13664
▁Mant	-13665
randed	-13666
▁Gibb	-13667
▁triple	-13668
▁destro	-13669
▁Bergen	-13670
▁lib	-13671
▁Sacram	-13672
▁bases	-13673
▁Body	-13674
▁Journ	-13675
▁considerable	-13676
▁Than	-13677
▁1852	-13678
arde	-13679
▁weak	-13680
▁diverse	-13681
▁Colle	-13682
▁Galway	-13683
ocal	-13684
▁Feature	-13685
▁Airports	-13686
▁Reich	-13687
adia	-13688
aso	-13689
zew	-13690
▁True	-13691
▁advantage	-13692
▁(2022	-13693
▁connections	-13694
▁Amy	-13695
▁webs	-13696
▁manner	-13697
▁ages	-13698
olar	-13699
▁absence	-13700
▁Sit	-13701
iman	-13702
▁tomb	-13703
▁rescue	-13704
▁proposal	-13705
rawn	-13706
▁ensure	-13707
▁30.	-13708
rapped	-13709
▁subsc	-13710
▁congressional	-13711
▁Dubai	-13712
emberg	-13713
▁restrict	-13714
uni	-13715
▁Hoff	-13716
▁Grass	-13717
▁defence	-13718
▁fourteen	-13719
▁Edwin	-13720
adal	-13721
▁Superior	-13722
▁wars	-13723
▁Guest	-13724
▁Institution	-13725
ysc	-13726
ilion	-13727
▁1986)	-13728
Brit	-13729
▁Paintings	-13730
▁Maxim	-13731
▁Scholars	-13732
▁sleep	-13733
▁fame	-13734
▁cos	-13735
member	-13736
▁entrants	-13737
▁Hyder	-13738
▁Lob	-13739
▁prol	-13740
▁Wheel	-13741
▁Amphibians	-13742
▁functional	-13743
▁treated	-13744
verse	-13745
▁71	-13746
oces	-13747
▁neighbouring	-13748
arium	-13749
pez	-13750
OP	-13751
ík	-13752
▁Stefan	-13753
Black	-13754
▁rocket	-13755
▁opportunities	-13756
GM	-13757
▁Au	-13758
ević	-13759
▁73	-13760
▁Mog	-13761
▁referend	-13762
chay	-13763
▁Gem	-13764
▁receptor	-13765
▁Summary	-13766
▁parking	-13767
▁Isab	-13768
▁timber	-13769
building	-13770
▁hunting	-13771
▁Dorothy	-13772
▁vertical	-13773
▁1950.	-13774
▁ruins	-13775
▁manor	-13776
▁scorer	-13777
▁mosque	-13778
▁Tobago	-13779
▁Sara	-13780
▁crater	-13781
Br	-13782
▁recovered	-13783
▁cer	-13784
urel	-13785
▁Josef	-13786
▁Salem	-13787
▁walking	-13788
▁mont	-13789
▁1947.	-13790
▁camps	-13791
▁Lords	-13792
whe	-13793
▁discip	-13794
mant	-13795
AAF	-13796
beck	-13797
▁veteran	-13798
▁1955,	-13799
▁illegal	-13800
▁Łód	-13801
quis	-13802
owner	-13803
▁policies	-13804
▁acquisition	-13805
OT	-13806
▁constant	-13807
▁Haj	-13808
▁crossed	-13809
▁differences	-13810
▁ve	-13811
▁surgeon	-13812
▁seem	-13813
▁Param	-13814
▁Happy	-13815
OM	-13816
mits	-13817
▁rifle	-13818
▁confused	-13819
▁apparent	-13820
▁Cay	-13821
▁Koz	-13822
▁Adj	-13823
▁Fen	-13824
▁transmission	-13825
▁Chase	-13826
▁empt	-13827
▁Boris	-13828
isse	-13829
aders	-13830
▁Kyr	-13831
▁ell	-13832
▁Sü	-13833
85	-13834
▁1940.	-13835
songwriters	-13836
▁towers	-13837
▁Rhe	-13838
▁Rosen	-13839
▁Supporting	-13840
abil	-13841
▁Sites	-13842
▁detailed	-13843
▁ridge	-13844
▁forewings	-13845
▁Dhaka	-13846
▁manage	-13847
Mad	-13848
▁burned	-13849
▁pitchers	-13850
▁2002)	-13851
▁sitcom	-13852
▁Raion	-13853
legraph	-13854
▁sixteen	-13855
▁normally	-13856
irts	-13857
aines	-13858
▁dé	-13859
arna	-13860
▁alliance	-13861
iffs	-13862
▁dancers	-13863
▁CR	-13864
▁tot	-13865
▁requires	-13866
▁Dayton	-13867
▁receives	-13868
▁2020–21	-13869
immer	-13870
▁Associate	-13871
▁neighboring	-13872
otional	-13873
▁morph	-13874
▁Aviv	-13875
▁banned	-13876
▁botanist	-13877
▁inaugurated	-13878
▁liner	-13879
▁establishing	-13880
▁Jamaican	-13881
▁emperor	-13882
▁mi	-13883
Brien	-13884
▁USSR	-13885
▁86	-13886
▁inhabited	-13887
▁Ned	-13888
bassy	-13889
elong	-13890
▁Kamp	-13891
▁Fan	-13892
erick	-13893
▁nucle	-13894
▁Surn	-13895
atically	-13896
▁meat	-13897
▁29.	-13898
▁Fictional	-13899
▁Platform	-13900
▁throne	-13901
▁Steam	-13902
▁intellect	-13903
▁Fast	-13904
▁Alberto	-13905
▁Serg	-13906
▁overseas	-13907
▁milk	-13908
▁Safety	-13909
▁2016–17	-13910
▁Kenyan	-13911
De	-13912
▁1952,	-13913
▁Chak	-13914
▁Factory	-13915
▁Stutt	-13916
▁Cock	-13917
▁Viscount	-13918
riers	-13919
▁yard	-13920
▁2008)	-13921
through	-13922
▁Karen	-13923
▁Cand	-13924
▁fabric	-13925
▁81	-13926
ecraft	-13927
ainable	-13928
▁Style	-13929
▁Atlas	-13930
▁Exeter	-13931
▁1918,	-13932
▁Łódź	-13933
urai	-13934
Pal	-13935
▁1955.	-13936
▁Innov	-13937
▁wards	-13938
▁Elliott	-13939
▁settlers	-13940
week	-13941
▁whit	-13942
▁artillery	-13943
▁Medieval	-13944
▁Lit	-13945
brahim	-13946
▁Kind	-13947
anto	-13948
▁Flem	-13949
▁Achievement	-13950
ankar	-13951
ifies	-13952
87	-13953
asaki	-13954
▁Spect	-13955
▁1985)	-13956
know	-13957
▁Alleg	-13958
▁Communication	-13959
▁owns	-13960
common	-13961
Ge	-13962
▁Sisters	-13963
▁Dw	-13964
▁Marl	-13965
onda	-13966
▁surviv	-13967
▁Butterflies	-13968
▁Pink	-13969
▁Wonder	-13970
▁1954,	-13971
▁Ey	-13972
comple	-13973
▁Quest	-13974
▁remote	-13975
▁Yosh	-13976
▁Plaza	-13977
▁Ré	-13978
▁Alternative	-13979
Mal	-13980
airy	-13981
▁lac	-13982
▁Shore	-13983
▁appropri	-13984
▁Devil	-13985
▁consp	-13986
▁Toul	-13987
▁gone	-13988
midt	-13989
▁Monuments	-13990
▁nobility	-13991
sha	-13992
▁2007)	-13993
▁Apart	-13994
▁campaigns	-13995
▁chef	-13996
CAF	-13997
▁Border	-13998
▁hybrid	-13999
▁Peg	-14000
▁Eye	-14001
▁historically	-14002
▁Shakespeare	-14003
▁artificial	-14004
▁101	-14005
▁tube	-14006
▁Krak	-14007
ilarly	-14008
▁Insurance	-14009
▁Eyes	-14010
▁Yuk	-14011
▁nationally	-14012
▁mob	-14013
▁Lodge	-14014
▁floors	-14015
▁consecrated	-14016
alan	-14017
orian	-14018
▁Cash	-14019
info	-14020
än	-14021
▁export	-14022
▁contestants	-14023
▁Tav	-14024
▁rig	-14025
ischen	-14026
ène	-14027
▁0.0	-14028
cu	-14029
▁Industries	-14030
▁hyd	-14031
▁advocate	-14032
inery	-14033
▁Martha	-14034
▁withdraw	-14035
SE	-14036
▁Confederation	-14037
▁limestone	-14038
antes	-14039
▁Cho	-14040
▁1953,	-14041
▁130	-14042
▁Cloud	-14043
▁Tales	-14044
▁ferry	-14045
kie	-14046
yna	-14047
▁AN	-14048
▁strat	-14049
▁Bagh	-14050
▁doctors	-14051
▁ties	-14052
▁Pros	-14053
▁Chern	-14054
▁labour	-14055
▁simult	-14056
▁Mohammed	-14057
▁Thurs	-14058
zt	-14059
overe	-14060
▁desert	-14061
▁Adult	-14062
▁1939.	-14063
▁Store	-14064
holders	-14065
▁2006)	-14066
▁airports	-14067
▁Belle	-14068
▁variable	-14069
▁Amé	-14070
▁verse	-14071
aneously	-14072
▁Crystal	-14073
▁Krishna	-14074
▁peoples	-14075
▁unf	-14076
▁Sham	-14077
ński	-14078
▁eat	-14079
▁Bruno	-14080
▁Casc	-14081
arte	-14082
▁Tah	-14083
▁pupils	-14084
▁Burke	-14085
▁Oliv	-14086
cur	-14087
quir	-14088
▁Niel	-14089
▁topped	-14090
▁tort	-14091
▁trio	-14092
▁ele	-14093
▁sweet	-14094
▁filmmaker	-14095
▁missionary	-14096
▁automatic	-14097
▁dancing	-14098
▁massive	-14099
▁sits	-14100
▁SD	-14101
elyn	-14102
fred	-14103
▁copper	-14104
fire	-14105
▁Dir	-14106
rets	-14107
▁Facilities	-14108
▁congregation	-14109
▁renovated	-14110
iciency	-14111
▁Wilm	-14112
▁Kurdish	-14113
00,	-14114
▁sunk	-14115
▁guests	-14116
▁respective	-14117
▁Duk	-14118
89	-14119
▁facilit	-14120
▁Critics	-14121
▁relationships	-14122
▁Joel	-14123
▁Surnames	-14124
▁2003)	-14125
▁Ud	-14126
▁sounds	-14127
▁Curling	-14128
▁Opt	-14129
▁Hermann	-14130
ieve	-14131
▁prestigious	-14132
esty	-14133
▁signs	-14134
▁factors	-14135
▁Hayes	-14136
▁cream	-14137
▁distinctive	-14138
▁(25	-14139
▁Fantasy	-14140
▁trainer	-14141
▁Shadow	-14142
▁travels	-14143
▁epithet	-14144
▁traditionally	-14145
▁Erik	-14146
▁encoded	-14147
▁message	-14148
▁dischar	-14149
20,	-14150
join	-14151
▁restricted	-14152
▁hundreds	-14153
▁Pam	-14154
icking	-14155
If	-14156
▁1918.	-14157
▁assault	-14158
attered	-14159
▁bond	-14160
egie	-14161
▁Mob	-14162
▁Nico	-14163
▁Adolf	-14164
▁Pole	-14165
▁victories	-14166
▁prince	-14167
▁emigrated	-14168
author	-14169
▁Burns	-14170
▁Niz	-14171
▁Aquatics	-14172
TI	-14173
▁Dü	-14174
▁1953.	-14175
▁Palestinian	-14176
▁Moss	-14177
▁Polytechn	-14178
▁Reynolds	-14179
▁79	-14180
▁nut	-14181
▁exception	-14182
▁161	-14183
▁Huss	-14184
▁Haute	-14185
▁catalog	-14186
▁Laf	-14187
▁dominated	-14188
grand	-14189
▁Browns	-14190
▁Poz	-14191
omed	-14192
oyle	-14193
stock	-14194
ulations	-14195
▁Wagner	-14196
esque	-14197
▁clerk	-14198
▁1984)	-14199
atti	-14200
▁Structure	-14201
▁Hyderabad	-14202
iday	-14203
▁fer	-14204
ifolia	-14205
▁1954.	-14206
loss	-14207
▁argued	-14208
quez	-14209
geons	-14210
▁Resident	-14211
▁diver	-14212
▁marry	-14213
▁psychology	-14214
▁ni	-14215
▁Pearl	-14216
▁Bio	-14217
▁diesel	-14218
ishment	-14219
enko	-14220
▁Fergus	-14221
colm	-14222
▁legacy	-14223
▁Rachel	-14224
▁@	-14225
▁begun	-14226
▁chorus	-14227
musician	-14228
▁phosph	-14229
▁Dry	-14230
▁Vent	-14231
▁Passenger	-14232
▁endangered	-14233
▁Ble	-14234
▁Knox	-14235
▁soph	-14236
▁flies	-14237
diocese	-14238
ńsk	-14239
pit	-14240
hart	-14241
▁Sebastian	-14242
▁Fol	-14243
▁decline	-14244
▁breeding	-14245
▁preliminary	-14246
ulla	-14247
▁bott	-14248
▁referring	-14249
ommission	-14250
raction	-14251
▁1942.	-14252
▁dispute	-14253
▁Greene	-14254
▁Bolog	-14255
▁Landforms	-14256
PM	-14257
▁Indo	-14258
▁apparently	-14259
▁Ó	-14260
▁Nin	-14261
ything	-14262
uto	-14263
etter	-14264
▁Mongolia	-14265
otti	-14266
▁Globe	-14267
▁irreg	-14268
▁tight	-14269
alie	-14270
Lou	-14271
▁civilian	-14272
▁shallow	-14273
esi	-14274
▁87	-14275
▁Jh	-14276
▁protests	-14277
▁Grad	-14278
▁annex	-14279
communications	-14280
▁fat	-14281
▁Gius	-14282
ío	-14283
▁abstract	-14284
▁Mari	-14285
▁neut	-14286
▁2012)	-14287
▁Cairo	-14288
bian	-14289
▁opinion	-14290
▁Portsmouth	-14291
ned	-14292
▁Honour	-14293
▁Cauc	-14294
▁Sleep	-14295
LE	-14296
acco	-14297
▁counted	-14298
▁immediate	-14299
▁continuous	-14300
▁Kids	-14301
▁portraits	-14302
▁coup	-14303
▁Spiders	-14304
▁2009)	-14305
▁Agu	-14306
▁Choice	-14307
rox	-14308
artz	-14309
oft	-14310
▁Solar	-14311
▁Wildcats	-14312
▁inspiration	-14313
andom	-14314
▁conservative	-14315
▁buses	-14316
▁Pablo	-14317
▁posts	-14318
▁Winc	-14319
Paul	-14320
itan	-14321
vik	-14322
▁wire	-14323
▁1952.	-14324
▁Rolling	-14325
▁gradually	-14326
ulating	-14327
▁manuscripts	-14328
▁cash	-14329
urgical	-14330
▁extending	-14331
ono	-14332
▁Chelsea	-14333
▁(1994)	-14334
▁Wis	-14335
▁fru	-14336
▁nit	-14337
▁nicknamed	-14338
▁Cumberland	-14339
▁collective	-14340
▁romance	-14341
▁whor	-14342
gie	-14343
World	-14344
▁Deportivo	-14345
▁fib	-14346
▁pit	-14347
▁Patricia	-14348
▁Griffith	-14349
▁Ank	-14350
▁tons	-14351
rador	-14352
▁Balk	-14353
▁ensemble	-14354
▁submarines	-14355
▁89	-14356
ygen	-14357
enia	-14358
▁Hawks	-14359
imeters	-14360
▁delivery	-14361
▁2022–23	-14362
assy	-14363
▁neck	-14364
▁Andreas	-14365
▁Carnegie	-14366
▁1982)	-14367
▁och	-14368
▁1949.	-14369
▁virtual	-14370
▁2004)	-14371
evich	-14372
emann	-14373
half	-14374
▁Dad	-14375
▁subdiv	-14376
iblings	-14377
▁Collect	-14378
▁rankings	-14379
▁Willie	-14380
▁chrom	-14381
▁Make	-14382
league	-14383
▁engrav	-14384
▁Achievements	-14385
▁Font	-14386
▁extreme	-14387
▁Honduras	-14388
▁ma	-14389
▁circle	-14390
▁statistical	-14391
▁Cey	-14392
▁Figure	-14393
▁Morrison	-14394
hor	-14395
player	-14396
stances	-14397
▁Mathematical	-14398
▁describing	-14399
▁neu	-14400
say	-14401
▁McN	-14402
▁Julie	-14403
oil	-14404
▁Hang	-14405
▁Things	-14406
▁doors	-14407
alin	-14408
▁Flag	-14409
ález	-14410
▁1951,	-14411
▁falling	-14412
▁NK	-14413
atories	-14414
▁2011)	-14415
▁gam	-14416
iscal	-14417
kt	-14418
▁Stations	-14419
▁2013)	-14420
▁machines	-14421
wareness	-14422
ledon	-14423
▁preparation	-14424
jee	-14425
▁minority	-14426
▁councillor	-14427
▁snake	-14428
▁advice	-14429
mile	-14430
▁Cancer	-14431
▁initiated	-14432
tenham	-14433
▁Previously	-14434
▁Bug	-14435
▁Assam	-14436
apse	-14437
oco	-14438
▁1983)	-14439
▁Graph	-14440
ocent	-14441
▁Dres	-14442
UTC	-14443
▁Jamie	-14444
▁truck	-14445
▁Mozamb	-14446
▁survive	-14447
▁(2020)	-14448
▁relation	-14449
▁pastor	-14450
▁Recreation	-14451
▁installation	-14452
▁blind	-14453
▁Congreg	-14454
beat	-14455
▁Arctic	-14456
▁Brasile	-14457
▁cant	-14458
▁Sugar	-14459
▁Nuclear	-14460
▁freight	-14461
seat	-14462
▁citizen	-14463
usz	-14464
▁Ferry	-14465
▁Vernon	-14466
▁Novel	-14467
▁2010)	-14468
▁immigrants	-14469
rina	-14470
quarters	-14471
▁matters	-14472
▁Dul	-14473
▁Wid	-14474
▁grave	-14475
▁Conservatory	-14476
▁u	-14477
▁trom	-14478
▁ballet	-14479
▁Theory	-14480
▁anthology	-14481
▁Leadership	-14482
▁scales	-14483
utor	-14484
▁Rankings	-14485
inters	-14486
dish	-14487
East	-14488
udi	-14489
▁Hi	-14490
▁chapters	-14491
ellers	-14492
▁accompany	-14493
▁Aboriginal	-14494
thy	-14495
▁Elev	-14496
▁Mercury	-14497
▁cooperation	-14498
▁Thames	-14499
▁governments	-14500
itary	-14501
▁2005)	-14502
▁facade	-14503
▁documented	-14504
-15	-14505
▁TC	-14506
▁Bangkok	-14507
▁Clement	-14508
éné	-14509
▁ongoing	-14510
electric	-14511
▁publicly	-14512
▁benefit	-14513
▁flute	-14514
▁websites	-14515
▁Malcolm	-14516
kel	-14517
owice	-14518
▁Hartford	-14519
▁Concord	-14520
▁Beginning	-14521
▁Pied	-14522
▁yield	-14523
▁detail	-14524
ulia	-14525
▁overlo	-14526
▁155	-14527
▁Others	-14528
69	-14529
▁Zambia	-14530
▁Bash	-14531
bay	-14532
▁hect	-14533
oura	-14534
▁register	-14535
aland	-14536
▁simpl	-14537
▁defended	-14538
▁(4)	-14539
▁Nom	-14540
ylogen	-14541
▁charted	-14542
▁Rocky	-14543
▁flights	-14544
acia	-14545
anim	-14546
▁Moldova	-14547
overeign	-14548
▁practiced	-14549
▁100.	-14550
▁bars	-14551
eps	-14552
▁bath	-14553
rz	-14554
atur	-14555
▁Stuttgart	-14556
warf	-14557
▁Underg	-14558
umble	-14559
▁Mikh	-14560
▁structural	-14561
inned	-14562
▁limits	-14563
▁enlisted	-14564
auf	-14565
▁Duchy	-14566
habilit	-14567
▁Lisbon	-14568
▁Autom	-14569
▁useful	-14570
▁Throughout	-14571
ogie	-14572
arant	-14573
▁Northeast	-14574
sm	-14575
president	-14576
▁Porto	-14577
▁Guards	-14578
▁spac	-14579
▁Strong	-14580
▁Cypriot	-14581
▁commented	-14582
▁Clubs	-14583
▁interchange	-14584
▁1980)	-14585
▁Jeremy	-14586
▁printing	-14587
▁physicist	-14588
▁RA	-14589
▁divorced	-14590
▁wear	-14591
penter	-14592
▁1920,	-14593
▁oct	-14594
▁excellent	-14595
▁tum	-14596
▁jobs	-14597
▁Kod	-14598
▁lift	-14599
prising	-14600
▁Badminton	-14601
iani	-14602
▁Ages	-14603
▁Fri	-14604
▁González	-14605
▁tables	-14606
▁Rajasthan	-14607
▁concerning	-14608
▁1981)	-14609
▁Mile	-14610
▁passage	-14611
▁libraries	-14612
five	-14613
▁Apostolic	-14614
▁84	-14615
▁Betty	-14616
▁intern	-14617
endon	-14618
▁Recorded	-14619
izont	-14620
▁1847	-14621
▁Logan	-14622
▁virus	-14623
igrant	-14624
arina	-14625
▁Resp	-14626
duce	-14627
▁privately	-14628
▁infantry	-14629
▁Fauna	-14630
riculum	-14631
▁1853	-14632
strumental	-14633
▁tuber	-14634
▁imprisoned	-14635
▁lad	-14636
▁cloud	-14637
▁Greens	-14638
▁Buckingham	-14639
▁Clare	-14640
nie	-14641
▁perennial	-14642
▁Lucy	-14643
North	-14644
▁Troy	-14645
▁Annie	-14646
▁Creative	-14647
▁writings	-14648
ointed	-14649
▁fifty	-14650
▁laboratory	-14651
force	-14652
▁Solo	-14653
ın	-14654
▁Vor	-14655
▁Yas	-14656
restrial	-14657
Will	-14658
umps	-14659
intendo	-14660
ís	-14661
▁Such	-14662
▁1943.	-14663
▁industries	-14664
▁ghost	-14665
▁Barr	-14666
▁NASA	-14667
▁Berry	-14668
▁submitted	-14669
To	-14670
▁moves	-14671
▁Dundee	-14672
▁Oman	-14673
▁regime	-14674
▁jury	-14675
▁Kerry	-14676
▁Kuwait	-14677
late	-14678
▁Reviews	-14679
▁span	-14680
▁theatrical	-14681
▁townships	-14682
ovi	-14683
▁Johnston	-14684
▁gear	-14685
▁literally	-14686
▁touchdowns	-14687
▁Councill	-14688
ueb	-14689
cat	-14690
phan	-14691
▁LLC	-14692
▁wider	-14693
▁freshwater	-14694
VA	-14695
▁Wimb	-14696
inster	-14697
▁Plain	-14698
zel	-14699
▁Visual	-14700
▁RC	-14701
▁Forbes	-14702
▁syndrome	-14703
▁(1993)	-14704
▁biological	-14705
▁Constantin	-14706
▁Luk	-14707
▁Summit	-14708
werp	-14709
▁identical	-14710
”,	-14711
▁Neighbourhoods	-14712
▁1938,	-14713
▁Deleg	-14714
ateral	-14715
▁Products	-14716
▁rarely	-14717
▁Cover	-14718
▁Hampton	-14719
▁revised	-14720
oso	-14721
▁Ves	-14722
▁pure	-14723
▁Without	-14724
▁Alexandria	-14725
▁cooper	-14726
aspor	-14727
free	-14728
arr	-14729
produced	-14730
▁reporting	-14731
▁commissioner	-14732
▁apprent	-14733
▁Giuseppe	-14734
▁recommend	-14735
64	-14736
▁Vy	-14737
▁WTA	-14738
▁shooters	-14739
▁95	-14740
▁Theodore	-14741
▁Nicarag	-14742
▁Geological	-14743
elles	-14744
▁Housing	-14745
▁assemb	-14746
▁wants	-14747
▁Ish	-14748
▁cinemat	-14749
▁descendants	-14750
▁Bé	-14751
ürtt	-14752
scale	-14753
▁1951.	-14754
his	-14755
▁pent	-14756
▁subdivision	-14757
▁Clear	-14758
▁relev	-14759
keeper	-14760
endment	-14761
▁conclusion	-14762
clesiast	-14763
entieth	-14764
▁Entry	-14765
▁Sprint	-14766
nal	-14767
▁mainland	-14768
▁constitut	-14769
▁Excellence	-14770
▁UCLA	-14771
▁archbishop	-14772
sten	-14773
▁Espa	-14774
▁Wanderers	-14775
▁ber	-14776
▁Uzbekistan	-14777
vas	-14778
19,	-14779
▁Bacter	-14780
▁Monter	-14781
arat	-14782
▁Dup	-14783
▁ITF	-14784
inate	-14785
▁Oriental	-14786
▁everything	-14787
▁independ	-14788
canic	-14789
Port	-14790
▁Clem	-14791
▁Applied	-14792
▁Diana	-14793
Ang	-14794
IR	-14795
olics	-14796
▁identify	-14797
▁dish	-14798
loo	-14799
acked	-14800
▁genetic	-14801
▁belt	-14802
▁therm	-14803
▁VIII	-14804
▁Cohen	-14805
hee	-14806
brown	-14807
▁BWF	-14808
▁Murder	-14809
▁Ps	-14810
▁intermediate	-14811
▁Gel	-14812
▁prototype	-14813
▁AA	-14814
▁3000	-14815
▁Adults	-14816
cious	-14817
jana	-14818
mans	-14819
▁Victory	-14820
▁layer	-14821
▁rectang	-14822
ück	-14823
qi	-14824
▁Mund	-14825
▁Lenn	-14826
▁AG	-14827
▁authored	-14828
▁Republicans	-14829
cing	-14830
▁namely	-14831
izers	-14832
▁Loch	-14833
▁Fashion	-14834
▁Azerbaijani	-14835
▁banking	-14836
▁dean	-14837
▁Lyc	-14838
achment	-14839
▁Wong	-14840
▁emerged	-14841
▁Runner	-14842
▁enters	-14843
▁suitable	-14844
▁Omaha	-14845
▁cabin	-14846
▁Chuck	-14847
▁influences	-14848
aston	-14849
▁breaking	-14850
▁glac	-14851
▁1941.	-14852
▁Celeb	-14853
▁Sacramento	-14854
▁purple	-14855
ção	-14856
▁Inside	-14857
▁97	-14858
▁coffee	-14859
▁honored	-14860
avor	-14861
▁senator	-14862
ürttemberg	-14863
▁sentence	-14864
▁Cul	-14865
62	-14866
▁crowned	-14867
Go	-14868
▁Berkshire	-14869
▁encouraged	-14870
issions	-14871
▁constitution	-14872
▁NSW	-14873
▁(21	-14874
lived	-14875
▁exposed	-14876
▁anchor	-14877
▁possession	-14878
▁Lect	-14879
▁Kerman	-14880
▁aims	-14881
▁Nintendo	-14882
▁Ll	-14883
-197	-14884
▁Dynasty	-14885
EM	-14886
▁Myr	-14887
▁1979)	-14888
estr	-14889
▁Wolver	-14890
▁Cologne	-14891
▁queen	-14892
ste	-14893
erts	-14894
▁presents	-14895
▁edges	-14896
arest	-14897
ogg	-14898
▁Jets	-14899
▁2014)	-14900
▁Alpha	-14901
▁Tow	-14902
▁alphab	-14903
▁Zam	-14904
▁Beyond	-14905
▁Mohamed	-14906
▁1851	-14907
lis	-14908
daughter	-14909
kal	-14910
▁Lon	-14911
opa	-14912
▁Ort	-14913
▁seeking	-14914
amon	-14915
▁1917,	-14916
ifier	-14917
▁deriv	-14918
mount	-14919
–6,	-14920
non	-14921
▁Democracy	-14922
▁Magdal	-14923
▁practition	-14924
▁societies	-14925
▁Richards	-14926
▁hosting	-14927
▁Cambodia	-14928
eros	-14929
hetic	-14930
▁doesn	-14931
▁Valencia	-14932
▁highways	-14933
▁Hak	-14934
▁Aleksand	-14935
▁Cave	-14936
▁liberal	-14937
▁Sok	-14938
▁Meanwhile	-14939
uen	-14940
▁Bis	-14941
▁Ain	-14942
▁taxa	-14943
ologic	-14944
▁Kob	-14945
▁Deutsche	-14946
▁implementation	-14947
▁battery	-14948
▁Bullet	-14949
eford	-14950
▁1936,	-14951
▁Singers	-14952
ersh	-14953
▁2015)	-14954
thorn	-14955
▁instructor	-14956
▁struggle	-14957
▁Honors	-14958
▁Reference	-14959
athered	-14960
▁Albion	-14961
imental	-14962
▁holiday	-14963
▁Philippe	-14964
iker	-14965
▁conversion	-14966
▁tram	-14967
▁Karachi	-14968
afa	-14969
▁98	-14970
▁1938.	-14971
▁referee	-14972
FI	-14973
alling	-14974
▁Lombard	-14975
▁1919.	-14976
▁Geomet	-14977
alse	-14978
▁Els	-14979
raz	-14980
▁DS	-14981
prises	-14982
annah	-14983
▁altar	-14984
▁landsc	-14985
▁siblings	-14986
▁exceed	-14987
▁consequ	-14988
▁pregn	-14989
hydro	-14990
▁breed	-14991
▁pric	-14992
Hol	-14993
▁Instead	-14994
▁Playoffs	-14995
awar	-14996
▁Quint	-14997
▁Thomson	-14998
upp	-14999
▁Catalonia	-15000
▁Ethnic	-15001
▁speaking	-15002
folio	-15003
▁presenters	-15004
▁Perm	-15005
▁sees	-15006
rolling	-15007
onomic	-15008
evelt	-15009
linary	-15010
lic	-15011
Phil	-15012
caster	-15013
▁Sacred	-15014
cock	-15015
▁guards	-15016
▁École	-15017
▁boards	-15018
▁supplies	-15019
▁2021)	-15020
oran	-15021
▁Charter	-15022
▁deliver	-15023
▁Role	-15024
Europ	-15025
▁Have	-15026
▁2020)	-15027
▁Cretaceous	-15028
sized	-15029
▁Habitat	-15030
▁Labrador	-15031
▁Bahrain	-15032
lore	-15033
▁Pain	-15034
▁Wimbledon	-15035
▁RFC	-15036
▁instance	-15037
▁Scientists	-15038
▁1937,	-15039
▁Rabbi	-15040
▁samples	-15041
inen	-15042
eneath	-15043
▁Munster	-15044
▁Consult	-15045
▁economist	-15046
▁Vish	-15047
▁Midland	-15048
▁cock	-15049
ossible	-15050
▁focusing	-15051
▁Soc	-15052
Saint	-15053
000,	-15054
▁Ş	-15055
▁Hast	-15056
▁Roland	-15057
▁Mord	-15058
ovian	-15059
hops	-15060
▁angle	-15061
▁Broncos	-15062
▁Georgetown	-15063
yang	-15064
UCN	-15065
lifters	-15066
bernatorial	-15067
zan	-15068
▁Areas	-15069
▁Dorset	-15070
rev	-15071
▁interim	-15072
aviour	-15073
▁Mail	-15074
▁averaged	-15075
▁sponsorship	-15076
▁comprehensive	-15077
▁Walsh	-15078
▁Twitter	-15079
lich	-15080
▁Import	-15081
▁Norton	-15082
arton	-15083
▁Employ	-15084
▁Sister	-15085
▁Account	-15086
▁theorem	-15087
rub	-15088
▁burial	-15089
âteau	-15090
▁1920.	-15091
▁steps	-15092
oop	-15093
▁1849	-15094
quarter	-15095
shore	-15096
▁sample	-15097
▁pm	-15098
▁mor	-15099
ssel	-15100
▁Amar	-15101
emeteries	-15102
▁progressive	-15103
idan	-15104
▁Rag	-15105
about	-15106
▁Felix	-15107
▁Jesse	-15108
▁Tet	-15109
agonal	-15110
▁2016)	-15111
▁Madras	-15112
ESC	-15113
▁convert	-15114
▁Kend	-15115
British	-15116
▁Gross	-15117
amoto	-15118
illi	-15119
▁Boat	-15120
oroughbred	-15121
thor	-15122
▁Image	-15123
▁footage	-15124
▁Gloucestershire	-15125
▁ITV	-15126
▁Dynamo	-15127
flix	-15128
▁Collegiate	-15129
▁bout	-15130
▁faces	-15131
▁eighteen	-15132
▁denied	-15133
▁Bin	-15134
qualif	-15135
▁Weather	-15136
▁stint	-15137
oreg	-15138
▁Lagos	-15139
▁treas	-15140
▁rocky	-15141
▁Oceania	-15142
▁Bridg	-15143
▁Crus	-15144
▁Borneo	-15145
▁2017)	-15146
▁Listed	-15147
▁JR	-15148
▁Skating	-15149
▁Peer	-15150
ducing	-15151
▁peaks	-15152
▁remembered	-15153
▁prox	-15154
▁Greenland	-15155
▁Calcio	-15156
▁negoti	-15157
▁Learning	-15158
▁attendance	-15159
▁Theological	-15160
▁Adventures	-15161
Arch	-15162
▁hol	-15163
▁Ling	-15164
ingly	-15165
▁transit	-15166
▁Keep	-15167
▁Esport	-15168
▁competes	-15169
adan	-15170
exual	-15171
roat	-15172
elic	-15173
abl	-15174
▁Bold	-15175
:3	-15176
▁Geology	-15177
▁2)	-15178
GP	-15179
anco	-15180
dem	-15181
fried	-15182
holder	-15183
avid	-15184
umar	-15185
▁Gospel	-15186
▁numbered	-15187
▁Cowboys	-15188
▁CH	-15189
▁involves	-15190
▁Stad	-15191
▁usual	-15192
▁Beauty	-15193
▁1919,	-15194
▁Blu	-15195
▁els	-15196
missions	-15197
▁distingu	-15198
▁«	-15199
▁Sain	-15200
TH	-15201
▁Transfers	-15202
▁Wednesday	-15203
▁Sta	-15204
▁overview	-15205
ortion	-15206
▁Mau	-15207
▁cad	-15208
▁Tian	-15209
clesiastical	-15210
▁Lug	-15211
oting	-15212
nu	-15213
▁clients	-15214
▁bowl	-15215
▁phenomen	-15216
▁RNA	-15217
▁stems	-15218
▁consort	-15219
cott	-15220
▁Wan	-15221
cludes	-15222
▁fossils	-15223
▁Beau	-15224
▁relating	-15225
▁2018)	-15226
▁bears	-15227
olute	-15228
▁Buddh	-15229
ucc	-15230
▁decides	-15231
▁Roth	-15232
▁shift	-15233
▁1978)	-15234
▁Chapman	-15235
▁sav	-15236
▁Baltic	-15237
▁phrase	-15238
▁striker	-15239
▁choose	-15240
▁rapidly	-15241
▁generated	-15242
rupted	-15243
ocon	-15244
atoes	-15245
▁rebounds	-15246
county	-15247
▁Mell	-15248
umen	-15249
▁cow	-15250
▁Gov	-15251
won	-15252
▁Veh	-15253
▁(0.	-15254
▁Cecil	-15255
▁Rudolf	-15256
▁Adventure	-15257
When	-15258
▁varieties	-15259
▁Aless	-15260
▁Denis	-15261
▁Portrait	-15262
▁substantial	-15263
▁Trees	-15264
▁driven	-15265
▁Antwerp	-15266
▁patient	-15267
▁Tusc	-15268
appers	-15269
▁bull	-15270
▁characteristic	-15271
▁1971)	-15272
▁1969)	-15273
▁underwent	-15274
▁Criminal	-15275
▁1970)	-15276
▁$5	-15277
Pl	-15278
yi	-15279
Pac	-15280
▁Pag	-15281
▁Slam	-15282
▁1976)	-15283
▁(1992)	-15284
▁Lepid	-15285
agogue	-15286
▁runway	-15287
chez	-15288
▁files	-15289
▁Norwich	-15290
Jew	-15291
sv	-15292
▁Ceylon	-15293
gren	-15294
▁pig	-15295
▁SH	-15296
kina	-15297
▁Cott	-15298
▁1930,	-15299
▁permission	-15300
athlet	-15301
▁teeth	-15302
▁Zü	-15303
▁Meyer	-15304
▁strict	-15305
▁Rough	-15306
▁Paradise	-15307
▁Lincolnshire	-15308
▁Look	-15309
▁Lynch	-15310
▁alto	-15311
▁1977)	-15312
▁Hood	-15313
ibilities	-15314
uo	-15315
▁Lec	-15316
ituary	-15317
[...]
